{
  "version": "1.0",
  "truncation": null,
  "padding": null,
  "added_tokens": [
    {
      "id": 0,
      "content": "<PAD>",
      "single_word": false,
      "lstrip": false,
      "rstrip": false,
      "normalized": false,
      "special": true
    },
    {
      "id": 1,
      "content": "<BOS>",
      "single_word": false,
      "lstrip": false,
      "rstrip": false,
      "normalized": false,
      "special": true
    },
    {
      "id": 2,
      "content": "<EOS>",
      "single_word": false,
      "lstrip": false,
      "rstrip": false,
      "normalized": false,
      "special": true
    },
    {
      "id": 3,
      "content": "<UNK>",
      "single_word": false,
      "lstrip": false,
      "rstrip": false,
      "normalized": false,
      "special": true
    }
  ],
  "normalizer": null,
  "pre_tokenizer": {
    "type": "ByteLevel",
    "add_prefix_space": false,
    "trim_offsets": true,
    "use_regex": true
  },
  "post_processor": null,
  "decoder": {
    "type": "ByteLevel",
    "add_prefix_space": true,
    "trim_offsets": true,
    "use_regex": true
  },
  "model": {
    "type": "BPE",
    "dropout": null,
    "unk_token": "<UNK>",
    "continuing_subword_prefix": null,
    "end_of_word_suffix": null,
    "fuse_unk": false,
    "byte_fallback": true,
    "ignore_merges": false,
    "vocab": {
      "<PAD>": 0,
      "<BOS>": 1,
      "<EOS>": 2,
      "<UNK>": 3,
      "!": 4,
      "\"": 5,
      "#": 6,
      "$": 7,
      "%": 8,
      "&": 9,
      "'": 10,
      "(": 11,
      ")": 12,
      "*": 13,
      "+": 14,
      ",": 15,
      "-": 16,
      ".": 17,
      "/": 18,
      "0": 19,
      "1": 20,
      "2": 21,
      "3": 22,
      "4": 23,
      "5": 24,
      "6": 25,
      "7": 26,
      "8": 27,
      "9": 28,
      ":": 29,
      ";": 30,
      "<": 31,
      "=": 32,
      ">": 33,
      "?": 34,
      "@": 35,
      "A": 36,
      "B": 37,
      "C": 38,
      "D": 39,
      "E": 40,
      "F": 41,
      "G": 42,
      "H": 43,
      "I": 44,
      "J": 45,
      "K": 46,
      "L": 47,
      "M": 48,
      "N": 49,
      "O": 50,
      "P": 51,
      "Q": 52,
      "R": 53,
      "S": 54,
      "T": 55,
      "U": 56,
      "V": 57,
      "W": 58,
      "X": 59,
      "Y": 60,
      "Z": 61,
      "[": 62,
      "\\": 63,
      "]": 64,
      "^": 65,
      "_": 66,
      "`": 67,
      "a": 68,
      "b": 69,
      "c": 70,
      "d": 71,
      "e": 72,
      "f": 73,
      "g": 74,
      "h": 75,
      "i": 76,
      "j": 77,
      "k": 78,
      "l": 79,
      "m": 80,
      "n": 81,
      "o": 82,
      "p": 83,
      "q": 84,
      "r": 85,
      "s": 86,
      "t": 87,
      "u": 88,
      "v": 89,
      "w": 90,
      "x": 91,
      "y": 92,
      "z": 93,
      "{": 94,
      "|": 95,
      "}": 96,
      "~": 97,
      "¡": 98,
      "¢": 99,
      "£": 100,
      "¤": 101,
      "¥": 102,
      "¦": 103,
      "§": 104,
      "¨": 105,
      "©": 106,
      "ª": 107,
      "«": 108,
      "¬": 109,
      "®": 110,
      "¯": 111,
      "°": 112,
      "±": 113,
      "²": 114,
      "³": 115,
      "´": 116,
      "µ": 117,
      "¶": 118,
      "·": 119,
      "¸": 120,
      "¹": 121,
      "º": 122,
      "»": 123,
      "¼": 124,
      "½": 125,
      "¾": 126,
      "¿": 127,
      "Â": 128,
      "Ã": 129,
      "Ä": 130,
      "Å": 131,
      "Æ": 132,
      "Ç": 133,
      "È": 134,
      "É": 135,
      "Ê": 136,
      "Ë": 137,
      "Ì": 138,
      "Í": 139,
      "Î": 140,
      "Ï": 141,
      "Ð": 142,
      "Ñ": 143,
      "Ò": 144,
      "Ó": 145,
      "Ô": 146,
      "Õ": 147,
      "Ö": 148,
      "×": 149,
      "Ø": 150,
      "Ù": 151,
      "Ú": 152,
      "Û": 153,
      "à": 154,
      "á": 155,
      "â": 156,
      "ã": 157,
      "ä": 158,
      "å": 159,
      "æ": 160,
      "ç": 161,
      "è": 162,
      "é": 163,
      "ê": 164,
      "ë": 165,
      "ì": 166,
      "í": 167,
      "ï": 168,
      "ð": 169,
      "Ċ": 170,
      "č": 171,
      "Ġ": 172,
      "Ģ": 173,
      "ģ": 174,
      "Ĥ": 175,
      "ĥ": 176,
      "Ħ": 177,
      "ħ": 178,
      "Ĩ": 179,
      "ĩ": 180,
      "Ī": 181,
      "ī": 182,
      "Ĭ": 183,
      "ĭ": 184,
      "Į": 185,
      "į": 186,
      "İ": 187,
      "ı": 188,
      "Ĳ": 189,
      "ĳ": 190,
      "Ĵ": 191,
      "ĵ": 192,
      "Ķ": 193,
      "ķ": 194,
      "ĸ": 195,
      "Ĺ": 196,
      "ĺ": 197,
      "Ļ": 198,
      "ļ": 199,
      "Ľ": 200,
      "ľ": 201,
      "Ŀ": 202,
      "ŀ": 203,
      "Ł": 204,
      "ł": 205,
      "Ń": 206,
      "Ġt": 207,
      "he": 208,
      "Ġa": 209,
      "in": 210,
      "čĊ": 211,
      "er": 212,
      "on": 213,
      "Ġthe": 214,
      "or": 215,
      "an": 216,
      "||": 217,
      "re": 218,
      "Ġ||": 219,
      "is": 220,
      "Ġs": 221,
      "Ġw": 222,
      "at": 223,
      "Ġo": 224,
      "ar": 225,
      "en": 226,
      "es": 227,
      "ed": 228,
      "Ġb": 229,
      "al": 230,
      "it": 231,
      "nd": 232,
      "Ġc": 233,
      "Ġof": 234,
      "Ġf": 235,
      "as": 236,
      "Ġ1": 237,
      "ic": 238,
      "Ġin": 239,
      "Ġp": 240,
      "ĠS": 241,
      "ro": 242,
      "Ġm": 243,
      "Ġand": 244,
      "ing": 245,
      "ou": 246,
      "ĠA": 247,
      "le": 248,
      "ĠT": 249,
      "ig": 250,
      "Ġd": 251,
      "Ġto": 252,
      "ol": 253,
      "Ġh": 254,
      "Ġ2": 255,
      "ion": 256,
      "ĠC": 257,
      "Ġ(": 258,
      "ĠM": 259,
      "il": 260,
      "âĢ": 261,
      "us": 262,
      "ĠI": 263,
      "id": 264,
      "am": 265,
      "om": 266,
      "ent": 267,
      "el": 268,
      "Ġ19": 269,
      "Ġis": 270,
      "ĠH": 271,
      "ĠB": 272,
      "ers": 273,
      "ĠP": 274,
      "00": 275,
      "ĠâĢ": 276,
      "Ġl": 277,
      "ĠL": 278,
      "ct": 279,
      "Ġn": 280,
      "Ġwas": 281,
      "Ġal": 282,
      "ad": 283,
      "et": 284,
      "Ġth": 285,
      "ch": 286,
      "st": 287,
      "ay": 288,
      "ĠThe": 289,
      "Ġg": 290,
      "ot": 291,
      "em": 292,
      "ir": 293,
      "Ġre": 294,
      "ht": 295,
      "ĠD": 296,
      "ur": 297,
      "iv": 298,
      "ĠR": 299,
      "im": 300,
      "ĠF": 301,
      "ĠN": 302,
      "Ġk": 303,
      "Ġon": 304,
      "Ġfor": 305,
      "ow": 306,
      "ĠW": 307,
      "ut": 308,
      "Ġbe": 309,
      "ight": 310,
      "ly": 311,
      "ĠG": 312,
      "Ġe": 313,
      "ĠJ": 314,
      "ĠâĢĶ": 315,
      "ce": 316,
      "her": 317,
      "ĠE": 318,
      "fe": 319,
      "ber": 320,
      "ov": 321,
      "ist": 322,
      "|-": 323,
      "Ġst": 324,
      "Ġas": 325,
      "un": 326,
      "ation": 327,
      "and": 328,
      "ra": 329,
      "ign": 330,
      "oc": 331,
      "ian": 332,
      "op": 333,
      "th": 334,
      "Ġ200": 335,
      "ĠO": 336,
      "rom": 337,
      "ter": 338,
      "right": 339,
      "ĠK": 340,
      "ul": 341,
      "ag": 342,
      "ith": 343,
      "col": 344,
      "os": 345,
      "um": 346,
      "Ġan": 347,
      "19": 348,
      "ak": 349,
      "av": 350,
      "Ġhe": 351,
      "Ġby": 352,
      "ies": 353,
      "Ġ|": 354,
      "Ġkm": 355,
      "Ġfrom": 356,
      "Ġalign": 357,
      "color": 358,
      "gcolor": 359,
      "=#": 360,
      "Ġbgcolor": 361,
      "od": 362,
      "ac": 363,
      "Ġthat": 364,
      "all": 365,
      "Ġwith": 366,
      "ec": 367,
      "'s": 368,
      "ill": 369,
      "Ġ20": 370,
      "Ġit": 371,
      "Ġare": 372,
      "Ġwh": 373,
      "est": 374,
      "ia": 375,
      "mer": 376,
      "art": 377,
      "ĠU": 378,
      "ver": 379,
      "erson": 380,
      "ĠIt": 381,
      "res": 382,
      "ain": 383,
      "ep": 384,
      "Ġat": 385,
      "ĠHe": 386,
      "ld": 387,
      "Ġy": 388,
      "Ġor": 389,
      "ie": 390,
      "ican": 391,
      "Ġpl": 392,
      "ap": 393,
      "up": 394,
      "ember": 395,
      "Ġcom": 396,
      "ish": 397,
      "fefe": 398,
      "ard": 399,
      "Ġ\"": 400,
      "ĠSt": 401,
      "ĠâĢĵ": 402,
      "ary": 403,
      "ri": 404,
      "ust": 405,
      "Ġv": 406,
      "ity": 407,
      "nt": 408,
      "ant": 409,
      "ug": 410,
      "ĠV": 411,
      "Ġpro": 412,
      "Person": 413,
      "Ġ-": 414,
      "ĠCh": 415,
      "#:": 416,
      "Ġ199": 417,
      "ort": 418,
      "ud": 419,
      "ong": 420,
      "ab": 421,
      "ate": 422,
      "if": 423,
      "merican": 424,
      "EA": 425,
      "ame": 426,
      "Ġcon": 427,
      "ew": 428,
      "ich": 429,
      "our": 430,
      "se": 431,
      "Ġ3": 432,
      "Ġch": 433,
      "ell": 434,
      "ĠIn": 435,
      "Ġhis": 436,
      "ĠSoc": 437,
      "The": 438,
      "Ġde": 439,
      "Ġ201": 440,
      "ess": 441,
      "ast": 442,
      "orro": 443,
      "rit": 444,
      "ear": 445,
      "ore": 446,
      "ave": 447,
      "ip": 448,
      "IN": 449,
      "ub": 450,
      "so": 451,
      "EAR": 452,
      "ĠSocorro": 453,
      "ĠLIN": 454,
      "ĠLINEAR": 455,
      "end": 456,
      "Ġse": 457,
      "ost": 458,
      "Ġus": 459,
      "ge": 460,
      "ran": 461,
      "ive": 462,
      "ere": 463,
      "orn": 464,
      "ok": 465,
      "qu": 466,
      "Ġsh": 467,
      "),": 468,
      "ĠY": 469,
      "ther": 470,
      "og": 471,
      "ĠTh": 472,
      "ĠUn": 473,
      "Ġle": 474,
      "ine": 475,
      "Ġ18": 476,
      "eop": 477,
      "Ġnot": 478,
      "ord": 479,
      "ĠAmerican": 480,
      "ke": 481,
      "Ġ4": 482,
      "ire": 483,
      "eople": 484,
      "Ġex": 485,
      "Ġsp": 486,
      "Ġalso": 487,
      "ry": 488,
      "20": 489,
      "Ġplay": 490,
      "Ġwere": 491,
      "uc": 492,
      "ome": 493,
      "Ġmov": 494,
      "und": 495,
      "ure": 496,
      "ork": 497,
      "ment": 498,
      "Ġr": 499,
      "ack": 500,
      "ated": 501,
      "ount": 502,
      "Ġact": 503,
      "Ġhave": 504,
      "man": 505,
      "Ġhas": 506,
      "ial": 507,
      "ue": 508,
      "irst": 509,
      "own": 510,
      "ng": 511,
      "out": 512,
      "ĠMar": 513,
      "Ġab": 514,
      "Ġbec": 515,
      "are": 516,
      "Ġ5": 517,
      "Ġyou": 518,
      "ical": 519,
      "Ġte": 520,
      "Ġcan": 521,
      "ime": 522,
      "ice": 523,
      "hen": 524,
      "ang": 525,
      "Ġwhich": 526,
      "ide": 527,
      "Ġpeople": 528,
      ").": 529,
      "Ġfirst": 530,
      "uary": 531,
      "fefefe": 532,
      "any": 533,
      "land": 534,
      "eb": 535,
      "ates": 536,
      "sp": 537,
      "ne": 538,
      "Ġthey": 539,
      "ass": 540,
      "ited": 541,
      "Ġcomp": 542,
      "ions": 543,
      "ace": 544,
      "Ġ7": 545,
      "ould": 546,
      "ond": 547,
      "200": 548,
      "age": 549,
      "Ġj": 550,
      "ĠAl": 551,
      "ous": 552,
      "fter": 553,
      "Ġhad": 554,
      "ood": 555,
      "amp": 556,
      "Ġone": 557,
      "Ġun": 558,
      "iz": 559,
      "ater": 560,
      "Ġli": 561,
      "Ġ198": 562,
      "aw": 563,
      "one": 564,
      "Ġ6": 565,
      "Ġkn": 566,
      "ree": 567,
      "ĠSp": 568,
      "Ġbut": 569,
      "âĢĵ": 570,
      "ach": 571,
      "Ġro": 572,
      "ober": 573,
      "ors": 574,
      "ade": 575,
      "per": 576,
      "ern": 577,
      "Ġother": 578,
      "Ġtheir": 579,
      "to": 580,
      "ob": 581,
      "Ġar": 582,
      "Ġpart": 583,
      "ory": 584,
      "te": 585,
      "Ġher": 586,
      "aus": 587,
      "ath": 588,
      "cl": 589,
      "Ġ17": 590,
      "ally": 591,
      "Ġcl": 592,
      "Ġpol": 593,
      "ept": 594,
      "Ġwho": 595,
      "ind": 596,
      "Ġthis": 597,
      "ound": 598,
      "ict": 599,
      "ake": 600,
      "Ġ2000": 601,
      "ational": 602,
      "les": 603,
      "Ġ197": 604,
      "Ġme": 605,
      "Ġall": 606,
      "ĠLe": 607,
      "ress": 608,
      "Ġabout": 609,
      "Ġdo": 610,
      "Ġser": 611,
      "pp": 612,
      "Ġ9": 613,
      "ĠShe": 614,
      "row": 615,
      "orld": 616,
      "ick": 617,
      "fer": 618,
      "Ġtw": 619,
      "io": 620,
      "Ġ8": 621,
      "eptember": 622,
      "ild": 623,
      "ician": 624,
      "uch": 625,
      "ĠUnited": 626,
      "Ġcall": 627,
      "ĠAr": 628,
      "ook": 629,
      "Ġyear": 630,
      "old": 631,
      "ib": 632,
      "tern": 633,
      "ĠSeptember": 634,
      "lect": 635,
      "ctober": 636,
      "ans": 637,
      "very": 638,
      "ren": 639,
      "ens": 640,
      "ite": 641,
      "Ġwork": 642,
      "act": 643,
      "ult": 644,
      "ĠThey": 645,
      "ph": 646,
      "ĠOctober": 647,
      "Ġ2001": 648,
      "Ġ16": 649,
      "ĠNew": 650,
      "ings": 651,
      "Ġag": 652,
      "ĠThis": 653,
      "ward": 654,
      "199": 655,
      "ence": 656,
      "Ġ10": 657,
      "hed": 658,
      "ff": 659,
      "oug": 660,
      "pe": 661,
      "Ġ196": 662,
      "Ġused": 663,
      "orm": 664,
      "oot": 665,
      "Ġsc": 666,
      "ark": 667,
      "Ġtime": 668,
      "port": 669,
      "oh": 670,
      "ident": 671,
      "Ġcalled": 672,
      "18": 673,
      "Ġshe": 674,
      "Ġits": 675,
      "itt": 676,
      "Ġtwo": 677,
      "Ġafter": 678,
      "we": 679,
      "Ġknown": 680,
      "ah": 681,
      "oy": 682,
      "Ġad": 683,
      "pt": 684,
      "ĠStates": 685,
      "Ġup": 686,
      "ugust": 687,
      "ision": 688,
      "Ġmost": 689,
      "ubl": 690,
      "ons": 691,
      "iss": 692,
      "Ġcont": 693,
      "=\"": 694,
      "ased": 695,
      "Ġpolit": 696,
      "Ġne": 697,
      "ations": 698,
      "pr": 699,
      "Ġmade": 700,
      "Ġso": 701,
      "ied": 702,
      "ve": 703,
      "Ġmany": 704,
      "ĠSh": 705,
      "Ġbeen": 706,
      "Ġen": 707,
      "ition": 708,
      "Ġmus": 709,
      "ile": 710,
      "ĠEng": 711,
      "Ġwhen": 712,
      "ĠJan": 713,
      "ivers": 714,
      "ĠAugust": 715,
      "Ġout": 716,
      "Ġmore": 717,
      "ball": 718,
      "Ã©": 719,
      "Ġ15": 720,
      "ĠMarch": 721,
      "ause": 722,
      "Ġthere": 723,
      "ĠMay": 724,
      "clud": 725,
      "10": 726,
      "In": 727,
      "Ġwe": 728,
      "Ġ194": 729,
      "ten": 730,
      "ral": 731,
      "lev": 732,
      "Ġinto": 733,
      "Ġthem": 734,
      "Ġsing": 735,
      "uring": 736,
      "ics": 737,
      "Ġim": 738,
      "reat": 739,
      "ays": 740,
      "ĠNov": 741,
      "pl": 742,
      "ince": 743,
      "Ġdis": 744,
      "ll": 745,
      "erman": 746,
      "ts": 747,
      "Ġ195": 748,
      "Ġ12": 749,
      "ose": 750,
      "Ġra": 751,
      "Ġinclud": 752,
      "lish": 753,
      "Ġgo": 754,
      "als": 755,
      "ebr": 756,
      "here": 757,
      "Ġac": 758,
      "ina": 759,
      "ĠAs": 760,
      "ail": 761,
      "Ġ13": 762,
      "Ġmovie": 763,
      "ks": 764,
      "Ġsome": 765,
      "ram": 766,
      "Ġ1999": 767,
      "Ġover": 768,
      "Ġwrit": 769,
      "vent": 770,
      "Ġoff": 771,
      "ft": 772,
      "ĠNovember": 773,
      "outh": 774,
      "iver": 775,
      "ont": 776,
      "red": 777,
      "Ġhim": 778,
      "Ġper": 779,
      "Ġrec": 780,
      "son": 781,
      "ase": 782,
      "ebruary": 783,
      "ĠJanuary": 784,
      "Ġ193": 785,
      "Ġcount": 786,
      "eak": 787,
      "uct": 788,
      "Ġlike": 789,
      "ĠInd": 790,
      "Ġbet": 791,
      "born": 792,
      "ĠAn": 793,
      "ĠZ": 794,
      "span": 795,
      "12": 796,
      "orth": 797,
      "oll": 798,
      "pril": 799,
      "gan": 800,
      "ĠDec": 801,
      "ool": 802,
      "ames": 803,
      "vel": 804,
      "ash": 805,
      "oin": 806,
      "Ġ14": 807,
      "wn": 808,
      "ĠFebruary": 809,
      "Ġnew": 810,
      "overn": 811,
      "Ġcomm": 812,
      "inn": 813,
      "round": 814,
      "az": 815,
      "Ġwould": 816,
      "ton": 817,
      "irect": 818,
      "16": 819,
      "ces": 820,
      "ix": 821,
      "hes": 822,
      "Ġapp": 823,
      "Ġbecame": 824,
      "American": 825,
      "ĠRe": 826,
      "Ġpr": 827,
      "resident": 828,
      "Ġthan": 829,
      "17": 830,
      "ĠDecember": 831,
      "ĠBrit": 832,
      "ĠApril": 833,
      "ĠAnd": 834,
      "ik": 835,
      "ĠCom": 836,
      "Ġnum": 837,
      "ootball": 838,
      "ĠAust": 839,
      "roup": 840,
      "urn": 841,
      "Ġyears": 842,
      "ĠFran": 843,
      "198": 844,
      "atch": 845,
      "ars": 846,
      "ance": 847,
      "Ġonly": 848,
      "Ġfound": 849,
      "Ġpolitician": 850,
      "ĠGerman": 851,
      "ĠIs": 852,
      "Ġvery": 853,
      "une": 854,
      "||||": 855,
      "hip": 856,
      "Ġdif": 857,
      "ann": 858,
      "ect": 859,
      "13": 860,
      "ins": 861,
      "ely": 862,
      "olog": 863,
      "Ġfl": 864,
      "Ġborn": 865,
      "ily": 866,
      "Ġprod": 867,
      "Ġwill": 868,
      "ven": 869,
      "ists": 870,
      "ier": 871,
      "ese": 872,
      "Ġcent": 873,
      "ohn": 874,
      "22": 875,
      "âĢĻ": 876,
      "ĠJu": 877,
      "Ġstart": 878,
      "ĠWh": 879,
      "aid": 880,
      "igh": 881,
      "Ġ2002": 882,
      "levision": 883,
      "Ġbl": 884,
      "Ġfam": 885,
      "ĠWorld": 886,
      "inist": 887,
      "Ġatt": 888,
      "ugh": 889,
      "ĠPr": 890,
      "imes": 891,
      "able": 892,
      "ague": 893,
      "Ġsec": 894,
      "Ġsong": 895,
      "other": 896,
      "Ġbecause": 897,
      "arl": 898,
      "uss": 899,
      "Ġbu": 900,
      "Ġph": 901,
      "ween": 902,
      "ale": 903,
      "Ġdes": 904,
      "att": 905,
      "14": 906,
      "Ġagain": 907,
      "ĠSc": 908,
      "Ġpop": 909,
      "oth": 910,
      "Ġcol": 911,
      "Ġtra": 912,
      "Ġdirect": 913,
      "ement": 914,
      "iet": 915,
      "enn": 916,
      "15": 917,
      "ular": 918,
      "ather": 919,
      "ys": 920,
      "ica": 921,
      "Ġelect": 922,
      "aj": 923,
      "Ġrele": 924,
      "Ġname": 925,
      "iversity": 926,
      "ered": 927,
      "ink": 928,
      "ock": 929,
      "resent": 930,
      "anc": 931,
      "ener": 932,
      "ert": 933,
      "Ġqu": 934,
      "Ġwhere": 935,
      "ury": 936,
      "Ġlar": 937,
      "ĠKing": 938,
      "Ġsy": 939,
      "Ġget": 940,
      "Ġpre": 941,
      "fore": 942,
      "Ġund": 943,
      "ĠEnglish": 944,
      "air": 945,
      "\".": 946,
      "iam": 947,
      "Ġgroup": 948,
      "Ġstud": 949,
      "cess": 950,
      "Ġform": 951,
      "Ġnumber": 952,
      "bum": 953,
      "way": 954,
      "ouse": 955,
      "ĠJuly": 956,
      "Ġteam": 957,
      "ĠWar": 958,
      "ved": 959,
      "eth": 960,
      "Ġthen": 961,
      "Ġbetween": 962,
      "ĠCan": 963,
      "Ġmovies": 964,
      "Ġtelevision": 965,
      "Ġsuch": 966,
      "ĠBritish": 967,
      "ient": 968,
      "21": 969,
      "rib": 970,
      "Ġdiffer": 971,
      "ower": 972,
      "ually": 973,
      "uro": 974,
      "Ġtr": 975,
      "ck": 976,
      "ex": 977,
      "25": 978,
      "ĠJohn": 979,
      "Ġres": 980,
      "mp": 981,
      "Ġfe": 982,
      "ĠCl": 983,
      "Ġduring": 984,
      "24": 985,
      "'t": 986,
      "197": 987,
      "ĠPal": 988,
      "ough": 989,
      "iel": 990,
      "ley": 991,
      "Ġfootball": 992,
      "apan": 993,
      "Ġshow": 994,
      "Ġplayed": 995,
      "Ġseries": 996,
      "chool": 997,
      "ism": 998,
      "Ġdid": 999,
      "ai": 1000,
      "Ġcity": 1001,
      "Ġman": 1002,
      "Ġsm": 1003,
      "ĠAt": 1004,
      "23": 1005,
      "Ġend": 1006,
      "ever": 1007,
      "Ġrel": 1008,
      "Ġalbum": 1009,
      "ĠBl": 1010,
      "Ġlong": 1011,
      "ason": 1012,
      "Ġreg": 1013,
      "til": 1014,
      "Ġspec": 1015,
      "pen": 1016,
      "ious": 1017,
      "erm": 1018,
      "ey": 1019,
      "rough": 1020,
      "ĠDe": 1021,
      "Ġperson": 1022,
      "form": 1023,
      "my": 1024,
      "Ġsup": 1025,
      "Ġthree": 1026,
      "oman": 1027,
      "ĠBr": 1028,
      "Ġmay": 1029,
      "oun": 1030,
      "emb": 1031,
      "Ġany": 1032,
      "inal": 1033,
      "Ġam": 1034,
      "Ġmake": 1035,
      "Ġuntil": 1036,
      "Ġwon": 1037,
      "der": 1038,
      "ĠJapan": 1039,
      "ĠLeague": 1040,
      "30": 1041,
      "Ġdifferent": 1042,
      "rench": 1043,
      "ĠĠ": 1044,
      "ublic": 1045,
      "ities": 1046,
      "29": 1047,
      "Ġ1998": 1048,
      "Ġind": 1049,
      "Ġbir": 1050,
      "ures": 1051,
      "Ġco": 1052,
      "26": 1053,
      "Ġcre": 1054,
      "oss": 1055,
      "Ġ11": 1056,
      "000": 1057,
      "ĠPro": 1058,
      "ual": 1059,
      "rist": 1060,
      "ĠQ": 1061,
      "ĠPh": 1062,
      "ĠUniversity": 1063,
      "Ġmusic": 1064,
      "ished": 1065,
      "Ġdec": 1066,
      "aint": 1067,
      "ĠYou": 1068,
      "ĠHow": 1069,
      "ĠCol": 1070,
      "Ġplayer": 1071,
      "Ġno": 1072,
      "ĠYork": 1073,
      "ives": 1074,
      "ros": 1075,
      "Ġdist": 1076,
      "Ġlater": 1077,
      "ĠJune": 1078,
      "Ġlead": 1079,
      "ĠFor": 1080,
      "Ġback": 1081,
      "Ġdeath": 1082,
      "iving": 1083,
      "\"|": 1084,
      "amed": 1085,
      "Ġbro": 1086,
      "Ġactor": 1087,
      "ative": 1088,
      "Ġworld": 1089,
      "ĠCon": 1090,
      "Ġsaid": 1091,
      "Ġsecond": 1092,
      "ĠAd": 1093,
      "ax": 1094,
      "ĠBe": 1095,
      "Ġchar": 1096,
      "Ġuse": 1097,
      "Ġthrough": 1098,
      "OS": 1099,
      "Ġsame": 1100,
      "Ġwell": 1101,
      "ional": 1102,
      "Ġgovern": 1103,
      "ron": 1104,
      "27": 1105,
      "Ġset": 1106,
      "ines": 1107,
      "11": 1108,
      "Ġreleased": 1109,
      "erv": 1110,
      "Ġhel": 1111,
      "ĠOn": 1112,
      "ced": 1113,
      "arn": 1114,
      "Ġ24": 1115,
      "hem": 1116,
      "Ġart": 1117,
      "ĠCount": 1118,
      "ĠThere": 1119,
      "ung": 1120,
      "Ġchild": 1121,
      "ĠII": 1122,
      "28": 1123,
      "ĠEd": 1124,
      "ried": 1125,
      "Ġmy": 1126,
      "Ġdr": 1127,
      "ĠEuro": 1128,
      "ise": 1129,
      "ott": 1130,
      "ĠPresident": 1131,
      "ĠFrench": 1132,
      "ĠAustral": 1133,
      "angu": 1134,
      "ĠSe": 1135,
      "erg": 1136,
      "\",": 1137,
      "Ġbefore": 1138,
      "fect": 1139,
      "Ġkill": 1140,
      "Ġcould": 1141,
      "Ġcons": 1142,
      "Ġcar": 1143,
      "33": 1144,
      "let": 1145,
      "Ġbeing": 1146,
      "rop": 1147,
      "ful": 1148,
      "Ġbel": 1149,
      "ĠGe": 1150,
      "istory": 1151,
      "Ġsmall": 1152,
      "ived": 1153,
      "ĠRep": 1154,
      "au": 1155,
      "ĠSpace": 1156,
      "ĠCanad": 1157,
      "ants": 1158,
      "Ġmain": 1159,
      "Ġbook": 1160,
      "ĠAward": 1161,
      "ium": 1162,
      "its": 1163,
      "Ġfour": 1164,
      "Ġmed": 1165,
      "Ġhelp": 1166,
      "ox": 1167,
      "els": 1168,
      "akes": 1169,
      "rowspan": 1170,
      "ĠSouth": 1171,
      "ilm": 1172,
      "Ġmon": 1173,
      "ths": 1174,
      "Ġhow": 1175,
      "Ġoften": 1176,
      "Ġret": 1177,
      "ĠItal": 1178,
      "elf": 1179,
      "ords": 1180,
      "stem": 1181,
      "Ġsinger": 1182,
      "ull": 1183,
      "Ġmember": 1184,
      "ove": 1185,
      "ret": 1186,
      "ger": 1187,
      "ank": 1188,
      "ĠLa": 1189,
      "Ġold": 1190,
      "Ġrem": 1191,
      "ĠSw": 1192,
      "Ġcr": 1193,
      "Ġsub": 1194,
      "ĠCar": 1195,
      "ble": 1196,
      "Ġmar": 1197,
      "ring": 1198,
      "ating": 1199,
      "Ġstate": 1200,
      "ution": 1201,
      "ĠNational": 1202,
      "cy": 1203,
      "ject": 1204,
      "Ġplayers": 1205,
      "Ġproduc": 1206,
      "arly": 1207,
      "Ġcap": 1208,
      "Ġ25": 1209,
      "Ġif": 1210,
      "Ġwhat": 1211,
      "xt": 1212,
      "rict": 1213,
      "omen": 1214,
      "Ġgu": 1215,
      "Ġown": 1216,
      "Ġunder": 1217,
      "Ġright": 1218,
      "ital": 1219,
      "ĠFl": 1220,
      "illion": 1221,
      "Ġstarted": 1222,
      "ĠEl": 1223,
      "Ġthese": 1224,
      "ogra": 1225,
      "reen": 1226,
      "ze": 1227,
      "Ġsur": 1228,
      "ĠEurope": 1229,
      "ĠRiver": 1230,
      "Ġ2004": 1231,
      "196": 1232,
      "get": 1233,
      "ĠHis": 1234,
      "inister": 1235,
      "ĠOr": 1236,
      "ature": 1237,
      "Ġ2003": 1238,
      "35": 1239,
      "Ġmod": 1240,
      "ĠCity": 1241,
      "vol": 1242,
      "Ġband": 1243,
      "Ġ.": 1244,
      "Ġlife": 1245,
      "omar": 1246,
      "ĠKitt": 1247,
      "ampions": 1248,
      "ator": 1249,
      "omet": 1250,
      "ty": 1251,
      "Ġagainst": 1252,
      "ĠPl": 1253,
      "ught": 1254,
      "EAT": 1255,
      "velop": 1256,
      "fr": 1257,
      "Ġinter": 1258,
      "ĠPart": 1259,
      "40": 1260,
      "Ġactress": 1261,
      "cc": 1262,
      "ĠPeak": 1263,
      "ats": 1264,
      "ĠPalomar": 1265,
      "ric": 1266,
      "ĠNEAT": 1267,
      "Ġaround": 1268,
      "rand": 1269,
      "Ġdep": 1270,
      "ought": 1271,
      "Ġed": 1272,
      "ĠCounty": 1273,
      "watch": 1274,
      "ĠChrist": 1275,
      "ĠCal": 1276,
      "Ġgovernment": 1277,
      "ternational": 1278,
      "Ġgood": 1279,
      "ries": 1280,
      "arm": 1281,
      "ĠMus": 1282,
      "ĠRuss": 1283,
      "ollow": 1284,
      "ene": 1285,
      "Ġmet": 1286,
      "ĠSpacewatch": 1287,
      "Ġplace": 1288,
      "ĠAll": 1289,
      "ĠNorth": 1290,
      "Ġarea": 1291,
      "Ġbest": 1292,
      "Ġloc": 1293,
      "Ġwant": 1294,
      "iew": 1295,
      "ĠWill": 1296,
      "day": 1297,
      "fess": 1298,
      "Ġnamed": 1299,
      "Ġnow": 1300,
      "Ġoffic": 1301,
      "rans": 1302,
      "gest": 1303,
      "the": 1304,
      "Ġmuch": 1305,
      "ĠComm": 1306,
      "ĠAm": 1307,
      "ield": 1308,
      "key": 1309,
      "Ġlast": 1310,
      "urg": 1311,
      "ĠPar": 1312,
      "ody": 1313,
      "Ġwater": 1314,
      "sh": 1315,
      "Ġpo": 1316,
      "Ġrecord": 1317,
      "dom": 1318,
      "ĠHer": 1319,
      "ific": 1320,
      "Ġent": 1321,
      "Ġty": 1322,
      "ents": 1323,
      "ony": 1324,
      "Ġlangu": 1325,
      "ages": 1326,
      "Ġyour": 1327,
      "Ġ30": 1328,
      "Ġstr": 1329,
      "ĠGu": 1330,
      "Ġsince": 1331,
      "Ġland": 1332,
      "Ġrep": 1333,
      "Ġjust": 1334,
      "uck": 1335,
      "ald": 1336,
      "oint": 1337,
      "bs": 1338,
      "Ġ'": 1339,
      "ets": 1340,
      "Ġ2005": 1341,
      "48": 1342,
      "ird": 1343,
      "Ġnear": 1344,
      "ural": 1345,
      "alk": 1346,
      "Ġ2006": 1347,
      "uk": 1348,
      "Ġwent": 1349,
      "Ġsever": 1350,
      "Ġfamily": 1351,
      "ired": 1352,
      "ĠAfter": 1353,
      "Ġair": 1354,
      "Ġ23": 1355,
      "Ġboth": 1356,
      "ared": 1357,
      "eneral": 1358,
      "Ġactors": 1359,
      "50": 1360,
      "Ġsystem": 1361,
      "ĠCent": 1362,
      "Ġlook": 1363,
      "str": 1364,
      "ife": 1365,
      "Ġnational": 1366,
      "by": 1367,
      "Ġgame": 1368,
      "rest": 1369,
      "ek": 1370,
      "Ġincluding": 1371,
      "ĠPol": 1372,
      "stit": 1373,
      "Ġevery": 1374,
      "yl": 1375,
      "Ġacc": 1376,
      "ĠAnderson": 1377,
      "uth": 1378,
      "ata": 1379,
      "Ġimport": 1380,
      "Ġeach": 1381,
      "Ġlaw": 1382,
      "aking": 1383,
      "47": 1384,
      "ĠGeor": 1385,
      "ows": 1386,
      "Ġ21": 1387,
      "ology": 1388,
      "fl": 1389,
      "ĠTe": 1390,
      "Ġschool": 1391,
      "ĠMes": 1392,
      "oon": 1393,
      "Ġmil": 1394,
      "Ġem": 1395,
      "Ġass": 1396,
      "Ġdied": 1397,
      "38": 1398,
      "ute": 1399,
      "yn": 1400,
      "ĠMan": 1401,
      "ĠHar": 1402,
      "Ġday": 1403,
      "Ġcare": 1404,
      "57": 1405,
      "NE": 1406,
      "ĠBut": 1407,
      "ery": 1408,
      "Ġbas": 1409,
      "ison": 1410,
      "Ġsl": 1411,
      "Ġcountry": 1412,
      "Ġhum": 1413,
      "Ġwhile": 1414,
      "Ġ26": 1415,
      "eng": 1416,
      "ille": 1417,
      "ney": 1418,
      "gram": 1419,
      "ract": 1420,
      "ĠAb": 1421,
      "ves": 1422,
      "Ġway": 1423,
      "Ġformer": 1424,
      "36": 1425,
      "amb": 1426,
      "Ch": 1427,
      "Ġdevelop": 1428,
      "oard": 1429,
      "isc": 1430,
      "Ġbus": 1431,
      "Ġfollow": 1432,
      "Ġanim": 1433,
      "ajor": 1434,
      "Ġorig": 1435,
      "Ġ2014": 1436,
      "Ġ190": 1437,
      "ike": 1438,
      "Ġhigh": 1439,
      "Ġusually": 1440,
      "iness": 1441,
      "Ġexamp": 1442,
      "cer": 1443,
      "af": 1444,
      "ible": 1445,
      "Ġsign": 1446,
      "ross": 1447,
      "ians": 1448,
      "Ġseason": 1449,
      "59": 1450,
      "Ġ2017": 1451,
      "St": 1452,
      "46": 1453,
      "ains": 1454,
      "Ġseveral": 1455,
      "ĠParty": 1456,
      "ograph": 1457,
      "ĠMinister": 1458,
      "Ġtown": 1459,
      "side": 1460,
      "ampionship": 1461,
      "ĠX": 1462,
      "Ġadd": 1463,
      "colspan": 1464,
      "Ã¡": 1465,
      "ple": 1466,
      "Ġ29": 1467,
      "ĠBar": 1468,
      "ĠFrance": 1469,
      "ĠWe": 1470,
      "rown": 1471,
      "Ġcharact": 1472,
      "Ġbegan": 1473,
      "ling": 1474,
      "ino": 1475,
      "Ġmillion": 1476,
      "Ġrun": 1477,
      "app": 1478,
      "ized": 1479,
      "Ġmin": 1480,
      "Ġsk": 1481,
      "Ġbuild": 1482,
      "ĠMesa": 1483,
      "Ġorgan": 1484,
      "Ġbased": 1485,
      "rent": 1486,
      "Ġ&": 1487,
      "Ġneed": 1488,
      "ode": 1489,
      "\"|-": 1490,
      "..": 1491,
      "Ġdown": 1492,
      "ara": 1493,
      "Ġ28": 1494,
      "Ġsee": 1495,
      "Ġsuc": 1496,
      "Ġevent": 1497,
      "Ġ2010": 1498,
      "rem": 1499,
      "ĠWhen": 1500,
      "37": 1501,
      "con": 1502,
      "Ġimportant": 1503,
      "Ġcur": 1504,
      "\"|-||": 1505,
      "Ġsim": 1506,
      "Ġfin": 1507,
      "riend": 1508,
      "ĠMe": 1509,
      "rid": 1510,
      "Ġtake": 1511,
      "ane": 1512,
      "Ġwriter": 1513,
      "ĠAng": 1514,
      "Ġchildren": 1515,
      "96": 1516,
      "ae": 1517,
      "ĠLO": 1518,
      "uction": 1519,
      "Ġcentury": 1520,
      "ues": 1521,
      "Ġhead": 1522,
      "hest": 1523,
      "edy": 1524,
      "Ġprov": 1525,
      "aul": 1526,
      "ief": 1527,
      "cept": 1528,
      "Ġran": 1529,
      "ange": 1530,
      "NEOS": 1531,
      "ĠLONEOS": 1532,
      "54": 1533,
      "rad": 1534,
      "Ġ27": 1535,
      "urch": 1536,
      "80": 1537,
      "ĠMc": 1538,
      "Ġstill": 1539,
      "Ġdisc": 1540,
      "Ġthink": 1541,
      "lands": 1542,
      "for": 1543,
      "ondon": 1544,
      "ourn": 1545,
      "ĠThese": 1546,
      "ĠUS": 1547,
      "ole": 1548,
      "ones": 1549,
      "ĠAfr": 1550,
      "int": 1551,
      "Ġinc": 1552,
      "aster": 1553,
      "ments": 1554,
      "ulation": 1555,
      "Ġoper": 1556,
      "Ġlarge": 1557,
      "ience": 1558,
      "Ġdoes": 1559,
      "eter": 1560,
      "Ġprogram": 1561,
      "Ġknow": 1562,
      "ilt": 1563,
      "Ġ2007": 1564,
      "ĠCup": 1565,
      "ama": 1566,
      "Ġ2019": 1567,
      "Ġserv": 1568,
      "ittle": 1569,
      "rew": 1570,
      "ana": 1571,
      "ĠEm": 1572,
      "Ġint": 1573,
      "Ġopen": 1574,
      "ĠHowever": 1575,
      "Ġest": 1576,
      "Ġ22": 1577,
      "ices": 1578,
      "99": 1579,
      "Ġpopular": 1580,
      "eder": 1581,
      "Ġexample": 1582,
      "ales": 1583,
      "Ġfilm": 1584,
      "Ġprofess": 1585,
      "ĠWilliam": 1586,
      "arth": 1587,
      "56": 1588,
      "34": 1589,
      "irl": 1590,
      "ĠLondon": 1591,
      "Ġleft": 1592,
      "Ġext": 1593,
      "ham": 1594,
      "Ġ2011": 1595,
      "omin": 1596,
      "oci": 1597,
      "Ġearly": 1598,
      "ler": 1599,
      "Ġ2015": 1600,
      "ĠSome": 1601,
      "ĠEngland": 1602,
      "Ġ2018": 1603,
      "Ġwar": 1604,
      "Ġcompos": 1605,
      "Ġ2020": 1606,
      "ĠRoman": 1607,
      "Ġ2016": 1608,
      "attle": 1609,
      "ĠSec": 1610,
      "Ġattack": 1611,
      "Ġcaus": 1612,
      "Ġtrans": 1613,
      "atic": 1614,
      "Ġcame": 1615,
      "Ġ2008": 1616,
      "Ġpower": 1617,
      "ĠThat": 1618,
      "âĢĿ": 1619,
      "ĠKingdom": 1620,
      "ner": 1621,
      "Ġterm": 1622,
      "Ġtimes": 1623,
      "Ġbirths": 1624,
      "ĠIndian": 1625,
      "oice": 1626,
      "ially": 1627,
      "led": 1628,
      "Ġvers": 1629,
      "ste": 1630,
      "ction": 1631,
      "aught": 1632,
      "ality": 1633,
      "umb": 1634,
      "oney": 1635,
      "cent": 1636,
      "Ġlive": 1637,
      "arch": 1638,
      "ometimes": 1639,
      "90": 1640,
      "Ġeven": 1641,
      "embers": 1642,
      "aur": 1643,
      "Ġgot": 1644,
      "ĠItalian": 1645,
      "ev": 1646,
      "ĠRec": 1647,
      "Ġcreated": 1648,
      "Ġpass": 1649,
      "ush": 1650,
      "Ġsingle": 1651,
      "tt": 1652,
      "Ġdesign": 1653,
      "ms": 1654,
      "writ": 1655,
      "Ġcountries": 1656,
      "idd": 1657,
      "Ġtook": 1658,
      "Ġleg": 1659,
      "com": 1660,
      "ien": 1661,
      "Ġann": 1662,
      "Ġchang": 1663,
      "ĠHouse": 1664,
      "Ġgreat": 1665,
      ".\"": 1666,
      "Ġeng": 1667,
      "ady": 1668,
      "Ġmat": 1669,
      "iven": 1670,
      "Ġclass": 1671,
      "58": 1672,
      "Ġsoc": 1673,
      "Ġhome": 1674,
      "Ġnorth": 1675,
      "ĠEx": 1676,
      "ĠBra": 1677,
      "Ġcompany": 1678,
      "Ġcommon": 1679,
      "Ġwinn": 1680,
      "Ġep": 1681,
      "lymp": 1682,
      "Ġshould": 1683,
      "ĠAmer": 1684,
      "anish": 1685,
      "ĠAss": 1686,
      "ĠEn": 1687,
      "39": 1688,
      "Ġmeans": 1689,
      "Ġ2012": 1690,
      "ala": 1691,
      "que": 1692,
      "Ġ2013": 1693,
      "ided": 1694,
      "iforn": 1695,
      "ĠGermany": 1696,
      "alt": 1697,
      "ĠAustralia": 1698,
      "yr": 1699,
      "Ġbre": 1700,
      "Ġ2009": 1701,
      "Ġfather": 1702,
      "ummer": 1703,
      "estern": 1704,
      "Ġanother": 1705,
      "Ġdef": 1706,
      "lex": 1707,
      "adem": 1708,
      "Ġlot": 1709,
      "ifornia": 1710,
      "Ġthings": 1711,
      "ĠNo": 1712,
      "ope": 1713,
      "Ġshort": 1714,
      "ĠNY": 1715,
      "na": 1716,
      "ĠTr": 1717,
      "ĠMon": 1718,
      "Ġcontro": 1719,
      "Ġmajor": 1720,
      "ĠOlymp": 1721,
      "de": 1722,
      "ĠWhat": 1723,
      "burg": 1724,
      "ĠSup": 1725,
      "over": 1726,
      "ÃŃ": 1727,
      "rog": 1728,
      "ches": 1729,
      "istor": 1730,
      "Ġsupport": 1731,
      "'m": 1732,
      "ĠOne": 1733,
      "Ġpubl": 1734,
      "sc": 1735,
      "ĠWest": 1736,
      "rote": 1737,
      "ĠCalifornia": 1738,
      "ideo": 1739,
      "Ġspecies": 1740,
      "ĠPhil": 1741,
      "ĠDav": 1742,
      "Ġlanguage": 1743,
      "yle": 1744,
      "itary": 1745,
      "Ġexp": 1746,
      "ipp": 1747,
      "icip": 1748,
      "oe": 1749,
      "Ġsuccess": 1750,
      "ourt": 1751,
      "Ġinclude": 1752,
      "Th": 1753,
      "ĠSch": 1754,
      "hel": 1755,
      "Ġpublic": 1756,
      "Ġbecome": 1757,
      "ĠChampionship": 1758,
      "88": 1759,
      "ides": 1760,
      "alth": 1761,
      "ĠNYS": 1762,
      "ting": 1763,
      "ffect": 1764,
      "ĠState": 1765,
      "ĠIndia": 1766,
      "epend": 1767,
      "Ġproble": 1768,
      "Ġmoved": 1769,
      "Ġbig": 1770,
      "Ġcommun": 1771,
      "Ġlight": 1772,
      "ĠOh": 1773,
      "lege": 1774,
      "Ġson": 1775,
      "Ġwomen": 1776,
      "Ġvar": 1777,
      "Ġthought": 1778,
      "aving": 1779,
      "Ġdiv": 1780,
      "omb": 1781,
      "ites": 1782,
      "rod": 1783,
      "ĠAmerica": 1784,
      "ĠPark": 1785,
      "ago": 1786,
      "Ġjoin": 1787,
      "reek": 1788,
      "55": 1789,
      "of": 1790,
      "Ġpresident": 1791,
      "ris": 1792,
      "Ġdirected": 1793,
      "On": 1794,
      "Ġbuilt": 1795,
      "eg": 1796,
      "wards": 1797,
      "44": 1798,
      "97": 1799,
      "uel": 1800,
      "Ġheld": 1801,
      "He": 1802,
      "Mov": 1803,
      "ĠSm": 1804,
      "ĠDo": 1805,
      "ĠLou": 1806,
      "istan": 1807,
      "ael": 1808,
      "ockey": 1809,
      "illa": 1810,
      "Ġwritten": 1811,
      "||||||||": 1812,
      "Ġcareer": 1813,
      "ius": 1814,
      "Ã¼": 1815,
      "Ġpopulation": 1816,
      "Ġweb": 1817,
      "Ġfew": 1818,
      "ĠJapanese": 1819,
      "ean": 1820,
      "ior": 1821,
      "lin": 1822,
      "ĠChar": 1823,
      "ĠBel": 1824,
      "view": 1825,
      "Ġ1990": 1826,
      "Ġbusiness": 1827,
      "Ġtit": 1828,
      "Ġcontin": 1829,
      "Ġsold": 1830,
      "Ġput": 1831,
      "Ġnext": 1832,
      "uthor": 1833,
      "Ġmen": 1834,
      "Ġstar": 1835,
      "artment": 1836,
      "ĠPer": 1837,
      "Ġrece": 1838,
      "ivil": 1839,
      "Ã¶": 1840,
      "ĠSer": 1841,
      "ĠMich": 1842,
      "Ġfamous": 1843,
      "Ġworked": 1844,
      "ised": 1845,
      "Ġbeg": 1846,
      "ĠGl": 1847,
      "ĠGovern": 1848,
      "conom": 1849,
      "Ġbody": 1850,
      "Ġtoo": 1851,
      "ĠHol": 1852,
      "Ġinv": 1853,
      "Ġthird": 1854,
      "Ġmusician": 1855,
      "60": 1856,
      "Ġsol": 1857,
      "Ġwrote": 1858,
      "ission": 1859,
      "Ġbelie": 1860,
      "Ġmembers": 1861,
      "Ġcurrent": 1862,
      "ington": 1863,
      "iod": 1864,
      "98": 1865,
      "ett": 1866,
      "Ġmanag": 1867,
      "Ġsix": 1868,
      "inc": 1869,
      "Ġfriend": 1870,
      "ĠJames": 1871,
      "Ġyoung": 1872,
      "Ġide": 1873,
      "Ġhistory": 1874,
      "Ġ1997": 1875,
      "Ġrock": 1876,
      "ĠMed": 1877,
      "bert": 1878,
      "Ġactiv": 1879,
      "ĠRober": 1880,
      "osed": 1881,
      "ĠUnion": 1882,
      "ĠAnt": 1883,
      "Ġdon": 1884,
      "Ġresp": 1885,
      "Ġfind": 1886,
      "chn": 1887,
      "Ġ31": 1888,
      "ness": 1889,
      "ival": 1890,
      "iter": 1891,
      "ĠAustr": 1892,
      "ps": 1893,
      "Ġgames": 1894,
      "aut": 1895,
      "itar": 1896,
      "ico": 1897,
      "Ġhand": 1898,
      "aced": 1899,
      "ij": 1900,
      "Ġsay": 1901,
      "Ġsouth": 1902,
      "Ġmother": 1903,
      "emoc": 1904,
      "ru": 1905,
      "han": 1906,
      "Ġtoget": 1907,
      "Ġtogether": 1908,
      "Ġlist": 1909,
      "ĠBro": 1910,
      "Ġrepresent": 1911,
      "Ġeas": 1912,
      "Ġgiven": 1913,
      "Ġclub": 1914,
      "Ġred": 1915,
      "ĠMy": 1916,
      "ĠSan": 1917,
      "hern": 1918,
      "oph": 1919,
      "aces": 1920,
      "Ġdirector": 1921,
      "Ġalong": 1922,
      "ĠCat": 1923,
      "ĠAg": 1924,
      "ster": 1925,
      "Ġpolitical": 1926,
      "ories": 1927,
      "Ġfootballer": 1928,
      "Ġdistrict": 1929,
      "Ġla": 1930,
      "ĠNor": 1931,
      "ways": 1932,
      "ĠSen": 1933,
      "ford": 1934,
      "Ġexpl": 1935,
      "Ġdeaths": 1936,
      "Ã³": 1937,
      "rag": 1938,
      "Ġ1996": 1939,
      "ells": 1940,
      "Ġtop": 1941,
      "Ġrest": 1942,
      "Ġfive": 1943,
      "ases": 1944,
      "Ġ1995": 1945,
      "ĠAc": 1946,
      "31": 1947,
      "Ġocc": 1948,
      "Ġpresent": 1949,
      "ility": 1950,
      "Ġcome": 1951,
      "It": 1952,
      "32": 1953,
      "ape": 1954,
      "Ġsw": 1955,
      "Ġmarried": 1956,
      "Ġusing": 1957,
      "Ġrad": 1958,
      "ĠPrime": 1959,
      "ka": 1960,
      "ĠâĢľ": 1961,
      "ĠJack": 1962,
      "Ġ2021": 1963,
      "Ġfood": 1964,
      "Ġreturn": 1965,
      "ĠSchool": 1966,
      "orts": 1967,
      "eal": 1968,
      "Ġcult": 1969,
      "Ġbecom": 1970,
      "Ġgroups": 1971,
      "Ġdays": 1972,
      "Movies": 1973,
      "med": 1974,
      "work": 1975,
      "uter": 1976,
      "Ġmean": 1977,
      "ĠCanada": 1978,
      "ĠCanadian": 1979,
      "Ġob": 1980,
      "hi": 1981,
      "ĠDon": 1982,
      "ĠRussian": 1983,
      "ĠQue": 1984,
      "self": 1985,
      "rain": 1986,
      "Ġrul": 1987,
      "ĠDay": 1988,
      "ĠEast": 1989,
      "ize": 1990,
      "Ġphys": 1991,
      "co": 1992,
      "Al": 1993,
      "ained": 1994,
      "Ġkilled": 1995,
      "Ġimp": 1996,
      "ĠAir": 1997,
      "rama": 1998,
      "Ġdesc": 1999,
      "Ġpos": 2000,
      "yd": 2001,
      "apt": 2002,
      "45": 2003,
      "Ġaway": 2004,
      "Ġturn": 2005,
      "ĠChina": 2006,
      "Ġtem": 2007,
      "eep": 2008,
      "ĠPaul": 2009,
      "Ġcond": 2010,
      "ĠGeorge": 2011,
      "Ġcharacter": 2012,
      "Ġgoing": 2013,
      "ream": 2014,
      "Ġserved": 2015,
      "Ġstop": 2016,
      "Ġlargest": 2017,
      "Ġcompet": 2018,
      "Ġhuman": 2019,
      "ĠSaint": 2020,
      "ically": 2021,
      "zer": 2022,
      "uted": 2023,
      "Ġrole": 2024,
      "ĠInternational": 2025,
      "avy": 2026,
      "ored": 2027,
      "ki": 2028,
      "Ġepis": 2029,
      "raft": 2030,
      "Ġvis": 2031,
      "berg": 2032,
      "val": 2033,
      "gy": 2034,
      "Ġvideo": 2035,
      "Ġdeb": 2036,
      "LO": 2037,
      "ky": 2038,
      "Ġmag": 2039,
      "ĠIf": 2040,
      "ctor": 2041,
      "2000": 2042,
      "Ġtrad": 2043,
      "writer": 2044,
      "86": 2045,
      "ency": 2046,
      "ĠTur": 2047,
      "Ġnov": 2048,
      "ĠAustralian": 2049,
      "Ġes": 2050,
      "ya": 2051,
      "Ġgen": 2052,
      "49": 2053,
      "Ġmust": 2054,
      "Ġline": 2055,
      "ĠRed": 2056,
      "br": 2057,
      "Ġage": 2058,
      "Ġ100": 2059,
      "osp": 2060,
      "ander": 2061,
      "ĠEuropean": 2062,
      "Ġfight": 2063,
      "Ġhouse": 2064,
      "orthern": 2065,
      "Ġparts": 2066,
      "oo": 2067,
      "ĠMor": 2068,
      "FA": 2069,
      "Ġthose": 2070,
      "Ġworks": 2071,
      "ĠHal": 2072,
      "Ġword": 2073,
      "aken": 2074,
      "ounc": 2075,
      "87": 2076,
      "alist": 2077,
      "Ġ1994": 2078,
      "iety": 2079,
      "Ġsent": 2080,
      "ked": 2081,
      "Ġappear": 2082,
      "inese": 2083,
      "por": 2084,
      "ĠMount": 2085,
      "Ġ1980": 2086,
      "Ġcapital": 2087,
      "be": 2088,
      "ĠMex": 2089,
      "ĠRich": 2090,
      "cle": 2091,
      "Ġspecial": 2092,
      "Ġpublished": 2093,
      "Ġsometimes": 2094,
      "Ġestab": 2095,
      "ography": 2096,
      "ĠRepublic": 2097,
      "Un": 2098,
      "Ġfem": 2099,
      "ĠJos": 2100,
      "ĠCo": 2101,
      "Ġperiod": 2102,
      "Ġmilitary": 2103,
      "Ġengine": 2104,
      "ĠPort": 2105,
      "Ġmoney": 2106,
      "Ġregion": 2107,
      "ĠCor": 2108,
      "Ġauthor": 2109,
      "Ġhard": 2110,
      "07": 2111,
      "Ġgl": 2112,
      "Ġkind": 2113,
      "Ġcamp": 2114,
      "Ġsu": 2115,
      "emocr": 2116,
      "Ġter": 2117,
      "men": 2118,
      "ĠNet": 2119,
      "ump": 2120,
      "ma": 2121,
      "Ġstand": 2122,
      "ĠDel": 2123,
      "Ġrepl": 2124,
      "Ġmark": 2125,
      "itions": 2126,
      "ges": 2127,
      "ĠGreat": 2128,
      "reg": 2129,
      "Ġresult": 2130,
      "'ll": 2131,
      "Ġprote": 2132,
      "ule": 2133,
      "Ġking": 2134,
      "ĠTw": 2135,
      "Ġwebs": 2136,
      "Ġ1960": 2137,
      "Ġprofessional": 2138,
      "ization": 2139,
      "ĠEmp": 2140,
      "Ġ1992": 2141,
      "thern": 2142,
      "Ġ187": 2143,
      "ĠDavid": 2144,
      "ĠMr": 2145,
      "ĠFLO": 2146,
      "ĠSo": 2147,
      "ertain": 2148,
      "ĠBest": 2149,
      "mon": 2150,
      "Ġlittle": 2151,
      "Ġblack": 2152,
      "ee": 2153,
      "van": 2154,
      "ĠSpanish": 2155,
      "ĠBlack": 2156,
      "An": 2157,
      "Ġperform": 2158,
      "Ġsound": 2159,
      "outhern": 2160,
      "off": 2161,
      "ĠSwed": 2162,
      "ĠRecords": 2163,
      "AS": 2164,
      "ĠGod": 2165,
      "Ġ1991": 2166,
      "itional": 2167,
      "06": 2168,
      "most": 2169,
      "95": 2170,
      "ids": 2171,
      "arent": 2172,
      "ym": 2173,
      "era": 2174,
      "utch": 2175,
      "Ġ186": 2176,
      "Ġversion": 2177,
      "iddle": 2178,
      "line": 2179,
      "Ġhig": 2180,
      "ours": 2181,
      "ued": 2182,
      "Ġprom": 2183,
      "Ġorder": 2184,
      "ĠAngel": 2185,
      "oad": 2186,
      "Ġnever": 2187,
      "Ġconsid": 2188,
      "ena": 2189,
      "ĠCharles": 2190,
      "iol": 2191,
      "ĠYes": 2192,
      "volution": 2193,
      "ĠMany": 2194,
      "ĠRobert": 2195,
      "Ġsom": 2196,
      "Ġliving": 2197,
      "ĠGr": 2198,
      "ording": 2199,
      "Ġequ": 2200,
      "pes": 2201,
      "icago": 2202,
      "overed": 2203,
      "Ġrelig": 2204,
      "Ġless": 2205,
      "Ġcaused": 2206,
      "ĠLouis": 2207,
      "Ġstory": 2208,
      "alf": 2209,
      "Ġmaking": 2210,
      "Ġside": 2211,
      "ument": 2212,
      "ĠSal": 2213,
      "ĠHen": 2214,
      "Ġwithout": 2215,
      "ĠTom": 2216,
      "ĠPeople": 2217,
      "ots": 2218,
      "ilar": 2219,
      "ified": 2220,
      "ĠSl": 2221,
      "erst": 2222,
      "zil": 2223,
      "Ġseen": 2224,
      "Ġmakes": 2225,
      "Ġel": 2226,
      "Ġfounded": 2227,
      "Ġproducer": 2228,
      "Ġhere": 2229,
      "ĠChinese": 2230,
      "Ġcor": 2231,
      "ctors": 2232,
      "Ġant": 2233,
      "ĠDep": 2234,
      "rab": 2235,
      "Ġexper": 2236,
      "ĠRoy": 2237,
      "ĠIts": 2238,
      "ĠMiss": 2239,
      "ĠBill": 2240,
      "eed": 2241,
      "unn": 2242,
      "iction": 2243,
      "Ġleader": 2244,
      "ĠMost": 2245,
      "ociation": 2246,
      "BC": 2247,
      "atural": 2248,
      "aper": 2249,
      "che": 2250,
      "Ġref": 2251,
      "Ġgrow": 2252,
      "though": 2253,
      "ĠQu": 2254,
      "Ġ1993": 2255,
      "Ġlived": 2256,
      "Ġgener": 2257,
      "Ġgeneral": 2258,
      "ville": 2259,
      "Ġvot": 2260,
      "Ġannoun": 2261,
      "Ġgive": 2262,
      "ĠĠĠĠ": 2263,
      "Ġbrother": 2264,
      "Ġgod": 2265,
      "appen": 2266,
      "Ġallow": 2267,
      "ĠArt": 2268,
      "ĠMal": 2269,
      "Ġscient": 2270,
      "vers": 2271,
      "ended": 2272,
      "ĠSte": 2273,
      "Ġbetter": 2274,
      "oviet": 2275,
      "ĠVal": 2276,
      "Ġsongs": 2277,
      "eum": 2278,
      "reet": 2279,
      "ida": 2280,
      "Ġtype": 2281,
      "ĠMont": 2282,
      "ĠPri": 2283,
      "ĠBer": 2284,
      "ĠKore": 2285,
      "ched": 2286,
      "gin": 2287,
      "iers": 2288,
      "now": 2289,
      "Ġcrit": 2290,
      "Ġhistor": 2291,
      "Ġstrong": 2292,
      "âĢĶ": 2293,
      "Ġ1989": 2294,
      "Ġ$": 2295,
      "Ġmount": 2296,
      "Ġhost": 2297,
      "Ġeconom": 2298,
      "ached": 2299,
      "De": 2300,
      "89": 2301,
      "ĠScott": 2302,
      "Ġ2022": 2303,
      "Ġcomedy": 2304,
      "Ġchange": 2305,
      "aves": 2306,
      "udd": 2307,
      "Ġartist": 2308,
      "Ġfact": 2309,
      "ĠCast": 2310,
      "Ġparty": 2311,
      "ĠComp": 2312,
      "Ġpar": 2313,
      "Ġdel": 2314,
      "Ã¨": 2315,
      "Ġheart": 2316,
      "ademy": 2317,
      "ĠMart": 2318,
      "Ġplan": 2319,
      "Ġofficial": 2320,
      "Ġdone": 2321,
      "urr": 2322,
      "Ġval": 2323,
      "ket": 2324,
      "iron": 2325,
      "Ġposs": 2326,
      "Ġsex": 2327,
      "ured": 2328,
      "Ġhappen": 2329,
      "cient": 2330,
      "ha": 2331,
      "Ġcomposer": 2332,
      "olic": 2333,
      "Ġfire": 2334,
      "ĠFirst": 2335,
      "ĠThom": 2336,
      "ini": 2337,
      "Ġwin": 2338,
      "Ġdue": 2339,
      "Ġstyle": 2340,
      "Ġbooks": 2341,
      "ades": 2342,
      "ration": 2343,
      "ĠTV": 2344,
      "Ġstation": 2345,
      "stead": 2346,
      "uke": 2347,
      "ĠWell": 2348,
      "ĠFlor": 2349,
      "Ġchem": 2350,
      "ĠDan": 2351,
      "ined": 2352,
      "ests": 2353,
      "ouncil": 2354,
      "ĠDist": 2355,
      "Ġmodern": 2356,
      "Ġvoice": 2357,
      "ĠVir": 2358,
      "Ġproduced": 2359,
      "atory": 2360,
      "Ġpaint": 2361,
      "ĠMil": 2362,
      "Ġlost": 2363,
      "ĠPak": 2364,
      "Ġlevel": 2365,
      "formation": 2366,
      "aim": 2367,
      "2010": 2368,
      "ĠBrazil": 2369,
      "Ġav": 2370,
      "ĠChristian": 2371,
      "ĠHall": 2372,
      "Ġled": 2373,
      "Ġ1970": 2374,
      "Ġjob": 2375,
      "ĠEmpire": 2376,
      "Ġreal": 2377,
      "Ġkeep": 2378,
      "antic": 2379,
      "Ġ,": 2380,
      "ĠSoviet": 2381,
      "Ġnight": 2382,
      "thing": 2383,
      "Ġcontrol": 2384,
      "raw": 2385,
      "Ġoriginal": 2386,
      "Ġtry": 2387,
      "olit": 2388,
      "ĠHigh": 2389,
      "Ġlate": 2390,
      "Ġlet": 2391,
      "ething": 2392,
      "Ġguitar": 2393,
      "atin": 2394,
      "SS": 2395,
      "board": 2396,
      "Ġdata": 2397,
      "2006": 2398,
      "77": 2399,
      "ula": 2400,
      "Ġarch": 2401,
      "41": 2402,
      "ĠCath": 2403,
      "Ġgave": 2404,
      "ĠDes": 2405,
      "ux": 2406,
      "uce": 2407,
      "ĠBy": 2408,
      "Ġformed": 2409,
      "atives": 2410,
      "unicip": 2411,
      "Ġ1981": 2412,
      "ashington": 2413,
      "Ġstage": 2414,
      "2005": 2415,
      "ĠRichard": 2416,
      "Ġopp": 2417,
      "ister": 2418,
      "ĠAfrica": 2419,
      "ĠGovernor": 2420,
      "Ġour": 2421,
      "Ġbeh": 2422,
      "Ġstars": 2423,
      "ergy": 2424,
      "ait": 2425,
      "Ġreport": 2426,
      "urt": 2427,
      "peror": 2428,
      "Ġwanted": 2429,
      "Ġice": 2430,
      "Ġothers": 2431,
      "Ġinternational": 2432,
      "ĠSam": 2433,
      "ĠReg": 2434,
      "ĠGreek": 2435,
      "Ġvill": 2436,
      "Ġorigin": 2437,
      "Ġtitle": 2438,
      "ĠMary": 2439,
      "43": 2440,
      "Ġche": 2441,
      "Ġdrama": 2442,
      "Ġalways": 2443,
      "unt": 2444,
      "ĠIr": 2445,
      "ĠChicago": 2446,
      "lection": 2447,
      "Ġdescrib": 2448,
      "Ġsimilar": 2449,
      "Ġwhite": 2450,
      "Ġnovel": 2451,
      "Ġdest": 2452,
      "ĠMad": 2453,
      "eph": 2454,
      "ropical": 2455,
      "Ġfollowing": 2456,
      "Ġreceived": 2457,
      "iro": 2458,
      "Ġpat": 2459,
      "Ġdefe": 2460,
      "ĠArmy": 2461,
      "Ġadm": 2462,
      "42": 2463,
      "ele": 2464,
      "2007": 2465,
      "Ġpoet": 2466,
      "Ġreally": 2467,
      "Ġstates": 2468,
      "rael": 2469,
      "ators": 2470,
      "wh": 2471,
      "Ġcancer": 2472,
      "Ġgr": 2473,
      "Ġelection": 2474,
      "ror": 2475,
      "Ġwife": 2476,
      "oul": 2477,
      "Ġhold": 2478,
      "ĠPat": 2479,
      "ĠRes": 2480,
      "Ġprocess": 2481,
      "Ġindepend": 2482,
      "ĠMichael": 2483,
      "Ġ1988": 2484,
      "Ġeduc": 2485,
      "ming": 2486,
      "Ġfun": 2487,
      "Ġcomputer": 2488,
      "cast": 2489,
      "odes": 2490,
      "ills": 2491,
      "Ġable": 2492,
      "Ġtro": 2493,
      "ĠAlex": 2494,
      "Ġstat": 2495,
      "Ġspeak": 2496,
      "nect": 2497,
      "Ġstudy": 2498,
      "ĠSing": 2499,
      "Ġmatch": 2500,
      "ental": 2501,
      "Ġeffect": 2502,
      "Ġsep": 2503,
      "ĠPeter": 2504,
      ".,": 2505,
      "flu": 2506,
      "):": 2507,
      "ĠAct": 2508,
      "Ġisland": 2509,
      "Ġread": 2510,
      "ude": 2511,
      "Ġbi": 2512,
      "Ġarr": 2513,
      "Ġbuilding": 2514,
      "ither": 2515,
      "ĠDr": 2516,
      "Ġsym": 2517,
      "Ġpoint": 2518,
      "oms": 2519,
      "lam": 2520,
      "ĠBen": 2521,
      "Ġjourn": 2522,
      "Ġ1987": 2523,
      "08": 2524,
      "ĠLos": 2525,
      "Ġsocial": 2526,
      "rey": 2527,
      "ense": 2528,
      "ura": 2529,
      "aughter": 2530,
      "Ġ()": 2531,
      "arliam": 2532,
      "ĠItaly": 2533,
      "reed": 2534,
      "Ġfield": 2535,
      "Ġlocal": 2536,
      "ĠGrand": 2537,
      "2003": 2538,
      "Ġoffice": 2539,
      "Ġelected": 2540,
      "51": 2541,
      "ĠSim": 2542,
      "ript": 2543,
      "Ġhaving": 2544,
      "ĠIsland": 2545,
      "Ġproblems": 2546,
      "sel": 2547,
      "ĠBas": 2548,
      "Ġgold": 2549,
      "ĠGeneral": 2550,
      "ongress": 2551,
      "Ġ1979": 2552,
      "Ġincluded": 2553,
      "ged": 2554,
      "ĠEarth": 2555,
      "ĠFrank": 2556,
      "ĠÃ": 2557,
      "ano": 2558,
      "ights": 2559,
      "ĠJew": 2560,
      "emocratic": 2561,
      "ĠMag": 2562,
      "ĠCollege": 2563,
      "uz": 2564,
      "Ġaward": 2565,
      "Ġfail": 2566,
      "ĠDuring": 2567,
      "Ġvol": 2568,
      "ffic": 2569,
      "urs": 2570,
      "ards": 2571,
      "Ġfr": 2572,
      "ĠChurch": 2573,
      "ĠSpain": 2574,
      "2001": 2575,
      "2004": 2576,
      "Ġ1950": 2577,
      "inning": 2578,
      "ĠPakistan": 2579,
      "ĠBec": 2580,
      "Ġlearn": 2581,
      "ĠAcademy": 2582,
      "Ġbecomes": 2583,
      "arliament": 2584,
      "roy": 2585,
      "olf": 2586,
      "ops": 2587,
      "Ar": 2588,
      "Ġ:": 2589,
      "ately": 2590,
      "ĠWashington": 2591,
      "Ġpartic": 2592,
      "92": 2593,
      "wood": 2594,
      "ĠFrom": 2595,
      "ĠGo": 2596,
      "Eng": 2597,
      "Ġbad": 2598,
      "ĠCont": 2599,
      "ware": 2600,
      "Ġjoined": 2601,
      "Living": 2602,
      "2008": 2603,
      "ĠAfrican": 2604,
      "not": 2605,
      "Ġwest": 2606,
      "lear": 2607,
      "Ġplaying": 2608,
      "aker": 2609,
      "Ġamong": 2610,
      "53": 2611,
      "less": 2612,
      "Ġpain": 2613,
      "Ġadv": 2614,
      "Ġphil": 2615,
      "Ġchanged": 2616,
      "ĠThen": 2617,
      "Ġrefer": 2618,
      "Ġannounced": 2619,
      "pect": 2620,
      "52": 2621,
      "ĠTex": 2622,
      "Ġworking": 2623,
      "Ġsomething": 2624,
      "utes": 2625,
      "Ġareas": 2626,
      "Ġstudio": 2627,
      "Ġsepar": 2628,
      "Ġdet": 2629,
      "Ġwithin": 2630,
      "Ġmovement": 2631,
      "Ġnomin": 2632,
      "Ġtalk": 2633,
      "Ġtoday": 2634,
      "Ġtaken": 2635,
      "ĠNe": 2636,
      "Ġbroad": 2637,
      "atures": 2638,
      "Ġshows": 2639,
      "itch": 2640,
      "ĠMic": 2641,
      "Ġrace": 2642,
      "Ġfrog": 2643,
      "iga": 2644,
      "Ġcapt": 2645,
      "Ġanimals": 2646,
      "Ġthough": 2647,
      "ĠFranc": 2648,
      "ona": 2649,
      "2002": 2650,
      "ĠSecret": 2651,
      "amm": 2652,
      "Ġdise": 2653,
      "ĠDistrict": 2654,
      "Ġfree": 2655,
      "Ġship": 2656,
      "ĠZeal": 2657,
      "la": 2658,
      "Ġmostly": 2659,
      "ĠCatal": 2660,
      "Ġradio": 2661,
      "Sh": 2662,
      "Ġmix": 2663,
      "imate": 2664,
      "acher": 2665,
      "ranch": 2666,
      "ĠParis": 2667,
      "Ã¤": 2668,
      "Ġriver": 2669,
      "iber": 2670,
      "arian": 2671,
      "eball": 2672,
      "Ġ1986": 2673,
      "ridge": 2674,
      "ĠAngeles": 2675,
      "History": 2676,
      "ĠZealand": 2677,
      "Ġ0": 2678,
      "Ġsea": 2679,
      "ston": 2680,
      "lic": 2681,
      "67": 2682,
      "ari": 2683,
      "astern": 2684,
      "ĠDutch": 2685,
      "cher": 2686,
      "Ġtot": 2687,
      "II": 2688,
      "|}": 2689,
      "Ġmight": 2690,
      "Ġmeet": 2691,
      "me": 2692,
      "Ġtre": 2693,
      "Ġtell": 2694,
      "ĠTo": 2695,
      "ansas": 2696,
      "aly": 2697,
      "Ġdi": 2698,
      "Ġeast": 2699,
      "Ġweek": 2700,
      "Ġappe": 2701,
      "Ġrights": 2702,
      "94": 2703,
      "sy": 2704,
      "ering": 2705,
      "Ġfinal": 2706,
      "ĠOther": 2707,
      "ĠIsrael": 2708,
      "Ġtrain": 2709,
      "ĠHenry": 2710,
      "Ġtri": 2711,
      "lement": 2712,
      "ĠTer": 2713,
      "abor": 2714,
      "ani": 2715,
      "Ġgra": 2716,
      "alls": 2717,
      "ogn": 2718,
      "Ġdam": 2719,
      "93": 2720,
      "Ġhalf": 2721,
      "ima": 2722,
      "ĠGold": 2723,
      "ped": 2724,
      "Ġtreat": 2725,
      "Ġnon": 2726,
      "ĠDiv": 2727,
      "Ġservice": 2728,
      "Ġhockey": 2729,
      "hemat": 2730,
      "pec": 2731,
      "Ġidea": 2732,
      "go": 2733,
      "Ġpost": 2734,
      "Ġmult": 2735,
      "There": 2736,
      "Ġsays": 2737,
      "ĠKh": 2738,
      "Ġ1973": 2739,
      "ĠArch": 2740,
      "ĠGreen": 2741,
      "Ġcomes": 2742,
      "ĠAtl": 2743,
      "FF": 2744,
      "icians": 2745,
      "Ġscience": 2746,
      "Ġlow": 2747,
      "uff": 2748,
      "za": 2749,
      "Ġeat": 2750,
      "Ġsil": 2751,
      "Ġinvol": 2752,
      "west": 2753,
      "Ġ(\"": 2754,
      "Ġ50": 2755,
      "ĠCentral": 2756,
      "ĠMac": 2757,
      "Ġhimself": 2758,
      "Ġfeel": 2759,
      "gypt": 2760,
      "Ġtechn": 2761,
      "lected": 2762,
      "field": 2763,
      "Mar": 2764,
      "ecut": 2765,
      "2009": 2766,
      "Ġwords": 2767,
      "ĠYear": 2768,
      "Ġspace": 2769,
      "Other": 2770,
      "gian": 2771,
      "ĠMo": 2772,
      "ably": 2773,
      "ĠHaleak": 2774,
      "Ġ/": 2775,
      "ĠSant": 2776,
      "ĠJust": 2777,
      "Ġappeared": 2778,
      "ems": 2779,
      "Ġ40": 2780,
      "ishop": 2781,
      "Ġconsidered": 2782,
      "like": 2783,
      "used": 2784,
      "ĠIre": 2785,
      "ĠRob": 2786,
      "ĠWil": 2787,
      "Ġalmost": 2788,
      "Ġ1984": 2789,
      "ĠVirgin": 2790,
      "asons": 2791,
      "iding": 2792,
      "Ġaut": 2793,
      "Ġfish": 2794,
      "Ġfull": 2795,
      "ĠSummer": 2796,
      "ĠEOS": 2797,
      "Ġ1982": 2798,
      "Ġdeveloped": 2799,
      "itor": 2800,
      "Ġplaces": 2801,
      "vert": 2802,
      "Ġ1983": 2803,
      "ĠHaleakala": 2804,
      "Ġcivil": 2805,
      "As": 2806,
      "bor": 2807,
      "Ġwind": 2808,
      "Ġpay": 2809,
      "ĠTra": 2810,
      "Ġgrad": 2811,
      "Ġviol": 2812,
      "Ġbird": 2813,
      "ĠCatholic": 2814,
      "Ġbord": 2815,
      "Ġonce": 2816,
      "iest": 2817,
      "ellow": 2818,
      "eh": 2819,
      "ada": 2820,
      "part": 2821,
      "rick": 2822,
      "Ġwoman": 2823,
      "ictor": 2824,
      "Ġ1977": 2825,
      "Ġphot": 2826,
      "Ġlocated": 2827,
      "ĠMet": 2828,
      "1990": 2829,
      "Ġincludes": 2830,
      "ĠWhite": 2831,
      "Ġinflu": 2832,
      "Ġmass": 2833,
      "bon": 2834,
      "ĠBattle": 2835,
      "Ġ1971": 2836,
      "English": 2837,
      "aff": 2838,
      "Ġ[": 2839,
      "ĠMer": 2840,
      "ĠDis": 2841,
      "ĠStar": 2842,
      "Ġ1985": 2843,
      "Ġincre": 2844,
      "lim": 2845,
      "Ġdaughter": 2846,
      "urb": 2847,
      "Ġconf": 2848,
      "ketball": 2849,
      "lor": 2850,
      "ĠWith": 2851,
      "acy": 2852,
      "ĠSmith": 2853,
      "ĠTexas": 2854,
      "Ġhit": 2855,
      "ĠGood": 2856,
      "Åį": 2857,
      "ita": 2858,
      "ĠRoyal": 2859,
      "ination": 2860,
      "Ġever": 2861,
      "iana": 2862,
      "ĠThomas": 2863,
      "Ġgirl": 2864,
      "Ġmove": 2865,
      "1999": 2866,
      "ĠIII": 2867,
      "nown": 2868,
      "Ġparent": 2869,
      "ĠPet": 2870,
      "aps": 2871,
      "Ġ1974": 2872,
      "ederal": 2873,
      "\")": 2874,
      "91": 2875,
      "ĠEgypt": 2876,
      "Ġfemale": 2877,
      "Ġcy": 2878,
      "ublican": 2879,
      "Ġinterest": 2880,
      "ota": 2881,
      "Ġcop": 2882,
      "unk": 2883,
      "Ġ1976": 2884,
      "Ġple": 2885,
      "ĠAustria": 2886,
      "'re": 2887,
      "gent": 2888,
      "read": 2889,
      "awa": 2890,
      "ayer": 2891,
      "Ġev": 2892,
      "ĠRussia": 2893,
      "Ġport": 2894,
      "Ġstay": 2895,
      "uced": 2896,
      "ĠAssociation": 2897,
      "Ġepisode": 2898,
      "irc": 2899,
      "Ġuses": 2900,
      "Ġprison": 2901,
      "ores": 2902,
      "Ġsuccessful": 2903,
      "Ġtour": 2904,
      "Ġround": 2905,
      "Ġappro": 2906,
      "ĠGra": 2907,
      "ĠJim": 2908,
      "Ġindust": 2909,
      "Ġtotal": 2910,
      "Ġiss": 2911,
      "People": 2912,
      "oor": 2913,
      "Ġten": 2914,
      "ression": 2915,
      "Ġsett": 2916,
      "ĠIreland": 2917,
      "ĠCarl": 2918,
      "Ġeight": 2919,
      "ĠEr": 2920,
      "urrican": 2921,
      "ĠWestern": 2922,
      "ID": 2923,
      "Ġsit": 2924,
      "ently": 2925,
      "ĠBC": 2926,
      "Ġplays": 2927,
      "Ġhot": 2928,
      "Ġpolice": 2929,
      "Ġcoach": 2930,
      "Ġdistrib": 2931,
      "ĠCarol": 2932,
      "Ġmodel": 2933,
      "Ġinformation": 2934,
      "ĠRock": 2935,
      "ĠObs": 2936,
      "ĠSilla": 2937,
      "ĠCouncil": 2938,
      "Ġlove": 2939,
      "Ġ1972": 2940,
      "Ġ1975": 2941,
      "ashi": 2942,
      "Ġ#": 2943,
      "eland": 2944,
      "ĠWomen": 2945,
      "ĠStud": 2946,
      "ĠMass": 2947,
      "Ġconc": 2948,
      "ĠOlympic": 2949,
      "85": 2950,
      "Actors": 2951,
      "Ġrese": 2952,
      "Ġdev": 2953,
      "Ġposition": 2954,
      "Ġcities": 2955,
      "ĠEU": 2956,
      "aths": 2957,
      "Ġenough": 2958,
      "Ġlanguages": 2959,
      "ĠQueen": 2960,
      "01": 2961,
      "66": 2962,
      "ĠMel": 2963,
      "urd": 2964,
      "Ġvoc": 2965,
      "Ġdepartment": 2966,
      "opher": 2967,
      "fic": 2968,
      "1998": 2969,
      "Ġcertain": 2970,
      "Ġinstr": 2971,
      "ances": 2972,
      "ĠIm": 2973,
      "Ġmot": 2974,
      "Ġtold": 2975,
      "United": 2976,
      "oma": 2977,
      "Ġey": 2978,
      "ĠOk": 2979,
      "annel": 2980,
      "forman": 2981,
      "lished": 2982,
      "ique": 2983,
      "ampion": 2984,
      "ĠMexico": 2985,
      "Ġmater": 2986,
      "ensus": 2987,
      "Ġcolor": 2988,
      "83": 2989,
      "band": 2990,
      "Ġtrib": 2991,
      "ato": 2992,
      "Ġcour": 2993,
      "1996": 2994,
      "time": 2995,
      "Ġopened": 2996,
      "Ġsug": 2997,
      "Ġdem": 2998,
      "ols": 2999,
      "ado": 3000,
      "ĠDen": 3001,
      "ively": 3002,
      "1995": 3003,
      "Ġtravel": 3004,
      "ĠTor": 3005,
      "Ġcomplet": 3006,
      "ning": 3007,
      "Ġboy": 3008,
      "Ġcase": 3009,
      "Ġinstead": 3010,
      "Ġprot": 3011,
      "craft": 3012,
      "Ġ1978": 3013,
      "Ġtemper": 3014,
      "After": 3015,
      "ĠAwards": 3016,
      "jan": 3017,
      "Ġteams": 3018,
      "ification": 3019,
      "ĠPrize": 3020,
      "Ġ1930": 3021,
      "Ġcounty": 3022,
      "Ġvarious": 3023,
      "Ġmunicip": 3024,
      "ĠCourt": 3025,
      "Ġrequ": 3026,
      "ĠOl": 3027,
      "Ġleast": 3028,
      "Ġmonths": 3029,
      "sur": 3030,
      "Ġenergy": 3031,
      "ĠLaw": 3032,
      "ires": 3033,
      "iller": 3034,
      "ĠBay": 3035,
      "Ġlives": 3036,
      "ĠGames": 3037,
      "Ġrail": 3038,
      "Ġcharacters": 3039,
      "Ġdebut": 3040,
      "OR": 3041,
      "back": 3042,
      "Ġfar": 3043,
      "elling": 3044,
      "Ġroad": 3045,
      "ĠRepresent": 3046,
      "Ġdisease": 3047,
      "ĠCatalina": 3048,
      "Ġscreen": 3049,
      "Cl": 3050,
      "empt": 3051,
      "Ġdeg": 3052,
      "ĠSuper": 3053,
      "Ġet": 3054,
      "ĠArab": 3055,
      "ĠNot": 3056,
      "Ġhealth": 3057,
      "ĠEmperor": 3058,
      "Ġfriends": 3059,
      "Ġforces": 3060,
      "ĠJer": 3061,
      "Ġaction": 3062,
      "vious": 3063,
      "Ġz": 3064,
      "Ġtakes": 3065,
      "Ġwriting": 3066,
      "Ġblood": 3067,
      "Ġnatural": 3068,
      "Ġview": 3069,
      "Ġ1940": 3070,
      "ĠMusic": 3071,
      "Ġbar": 3072,
      "ĠSur": 3073,
      "Ġnet": 3074,
      "enc": 3075,
      "ences": 3076,
      "Ġcomb": 3077,
      "Ġmonth": 3078,
      "lo": 3079,
      "Ġlim": 3080,
      "Ġreached": 3081,
      "ĠOs": 3082,
      "Ġbirth": 3083,
      "Ġintrod": 3084,
      "Ġmathemat": 3085,
      "Ġbreak": 3086,
      "pecially": 3087,
      "Ġtest": 3088,
      "ĠCSS": 3089,
      "ictures": 3090,
      "Ġacross": 3091,
      "lete": 3092,
      "ament": 3093,
      "ĠLove": 3094,
      "1997": 3095,
      "AR": 3096,
      "orning": 3097,
      "itect": 3098,
      "Ġ1967": 3099,
      "va": 3100,
      "etic": 3101,
      "Ġeither": 3102,
      "ĠJr": 3103,
      "Ġsoon": 3104,
      "Ġproject": 3105,
      "Ġwhe": 3106,
      "ĠSun": 3107,
      "ention": 3108,
      "ĠLand": 3109,
      "ender": 3110,
      "Ġarmy": 3111,
      "Ġdecided": 3112,
      "Ġtypes": 3113,
      "Ġobject": 3114,
      "iation": 3115,
      "Ġcause": 3116,
      "herlands": 3117,
      "estival": 3118,
      "ĠApp": 3119,
      "olk": 3120,
      "ils": 3121,
      "ĠVictor": 3122,
      "ending": 3123,
      "Ġjournalist": 3124,
      "uf": 3125,
      "viron": 3126,
      "Ġcal": 3127,
      "ĠMP": 3128,
      "ĠBus": 3129,
      "ĠUK": 3130,
      "Ġprotect": 3131,
      "Ġproduct": 3132,
      "ĠGeorg": 3133,
      "Ġwrest": 3134,
      "Ġkey": 3135,
      "Ġoutside": 3136,
      "Ġrecorded": 3137,
      "Ġbelieve": 3138,
      "gg": 3139,
      "70": 3140,
      "known": 3141,
      "ĠAre": 3142,
      "Ġhon": 3143,
      "Ġhapp": 3144,
      "Ġprim": 3145,
      "Ġpract": 3146,
      "ĠPe": 3147,
      "ĠVi": 3148,
      "Ġmanager": 3149,
      "Ġhor": 3150,
      "Ġnorm": 3151,
      "ĠWind": 3152,
      "Ġprop": 3153,
      "Ġclose": 3154,
      "yer": 3155,
      "Ġrelations": 3156,
      "head": 3157,
      "ider": 3158,
      "owers": 3159,
      "Ġcast": 3160,
      "amily": 3161,
      "Ġground": 3162,
      "mar": 3163,
      "ĠBrown": 3164,
      "ĠTheir": 3165,
      "ift": 3166,
      "earch": 3167,
      "ĠPrince": 3168,
      "This": 3169,
      "ĠOhio": 3170,
      "84": 3171,
      "ih": 3172,
      "Ġinside": 3173,
      "Ġpres": 3174,
      "Ġplant": 3175,
      "ologist": 3176,
      "Ġamount": 3177,
      "anks": 3178,
      "ĠCongress": 3179,
      "Ġquick": 3180,
      "Ġsour": 3181,
      "cean": 3182,
      "ĠLee": 3183,
      "sych": 3184,
      "iles": 3185,
      "ulf": 3186,
      "Ġgoes": 3187,
      "stitute": 3188,
      "Ġwinning": 3189,
      "ecutive": 3190,
      "Ġpark": 3191,
      "ĠUp": 3192,
      "Ġchart": 3193,
      "Ġsurv": 3194,
      "Ġprovince": 3195,
      "ĠBecause": 3196,
      "itz": 3197,
      "Ġcand": 3198,
      "ĠIran": 3199,
      "ĠDemocratic": 3200,
      "ĠStreet": 3201,
      "airs": 3202,
      "Ġvillage": 3203,
      "75": 3204,
      "ios": 3205,
      "Ġcourt": 3206,
      "ĠNetherlands": 3207,
      "Ġboard": 3208,
      "iger": 3209,
      "Ġ1968": 3210,
      "Ġevents": 3211,
      "iÄ": 3212,
      "Ġsouthern": 3213,
      "Ġespecially": 3214,
      "rel": 3215,
      "ĠSy": 3216,
      "Ġmid": 3217,
      "Ġplants": 3218,
      "Ġhighest": 3219,
      "ĠBook": 3220,
      "Ġreact": 3221,
      "Ġrecogn": 3222,
      "Ġhowever": 3223,
      "ĠCommun": 3224,
      "Mus": 3225,
      "bers": 3226,
      "Wh": 3227,
      "Ġsqu": 3228,
      "Ġchurch": 3229,
      "ĠSecretary": 3230,
      "NA": 3231,
      "ĠFred": 3232,
      "Ġ1969": 3233,
      "Ġrelease": 3234,
      "stitution": 3235,
      "Ġphilos": 3236,
      "Ġended": 3237,
      "ĠSat": 3238,
      "ransp": 3239,
      "ological": 3240,
      "ĠFlorida": 3241,
      "ca": 3242,
      "ĠScot": 3243,
      "Ġsure": 3244,
      "ĠVol": 3245,
      "elebr": 3246,
      "rd": 3247,
      "amil": 3248,
      "abeth": 3249,
      "Ġcoast": 3250,
      "Ġhelped": 3251,
      "ĠJoseph": 3252,
      "urricane": 3253,
      "'ve": 3254,
      "ĠBoy": 3255,
      "ĠFin": 3256,
      "Ġabove": 3257,
      "ĠAnn": 3258,
      "gen": 3259,
      "ador": 3260,
      "Ġvict": 3261,
      "ĠIrish": 3262,
      "och": 3263,
      "Ġcreat": 3264,
      "ĠMa": 3265,
      "Ġlonger": 3266,
      "Pl": 3267,
      "itive": 3268,
      "Ġstorm": 3269,
      "ustr": 3270,
      "ĠOlympics": 3271,
      "Ġmaterial": 3272,
      "72": 3273,
      "cks": 3274,
      "ams": 3275,
      "ĠAsia": 3276,
      "azine": 3277,
      "Ġfinished": 3278,
      "Ġdestroy": 3279,
      "isl": 3280,
      "Ġexist": 3281,
      "play": 3282,
      "selves": 3283,
      "73": 3284,
      "onn": 3285,
      "ĠBob": 3286,
      "ĠLatin": 3287,
      "ĠMuseum": 3288,
      "Ġfront": 3289,
      "Ġill": 3290,
      "Ġsoft": 3291,
      "Ġestablished": 3292,
      "ying": 3293,
      "Ġpress": 3294,
      "ĠIslam": 3295,
      "Ġproduction": 3296,
      "Ġdevelopment": 3297,
      "ta": 3298,
      "Ġpe": 3299,
      "Ġmeaning": 3300,
      "iy": 3301,
      "zo": 3302,
      "oto": 3303,
      "Ġearl": 3304,
      "eck": 3305,
      "Ġprob": 3306,
      "ends": 3307,
      "ĠPortug": 3308,
      "ĠVirginia": 3309,
      "HL": 3310,
      "Ġcross": 3311,
      "Ġconnect": 3312,
      "2011": 3313,
      "anger": 3314,
      "Ġroles": 3315,
      "ccording": 3316,
      "...": 3317,
      "Ġpossible": 3318,
      "vironment": 3319,
      "64": 3320,
      "face": 3321,
      "atter": 3322,
      "Ġinvent": 3323,
      "Ġpast": 3324,
      "ĠPenn": 3325,
      "Ġgrand": 3326,
      "Ġproper": 3327,
      "ĠSpring": 3328,
      "ĠSea": 3329,
      "Ġmedal": 3330,
      "à¤": 3331,
      "ĠFI": 3332,
      "aka": 3333,
      "Ġseven": 3334,
      "Ġclaim": 3335,
      "ensive": 3336,
      "Ġperformed": 3337,
      "ĠKansas": 3338,
      "Ġshown": 3339,
      "ĠEdward": 3340,
      "Ġsigned": 3341,
      "ĠMartin": 3342,
      "Ġcard": 3343,
      "Ġmem": 3344,
      "ynast": 3345,
      "TV": 3346,
      "Ġident": 3347,
      "Ġfarm": 3348,
      "ask": 3349,
      "ĠIll": 3350,
      "ĠJo": 3351,
      "verage": 3352,
      "ello": 3353,
      "Ġdead": 3354,
      "Ġcenter": 3355,
      "Ġfourth": 3356,
      "Å¡": 3357,
      "ĠGar": 3358,
      "Ġsports": 3359,
      "05": 3360,
      "nam": 3361,
      "Ġwebsites": 3362,
      "Ġbr": 3363,
      "ĠBur": 3364,
      "Ġliter": 3365,
      "ĠNob": 3366,
      "umn": 3367,
      "Ġparents": 3368,
      "At": 3369,
      "ising": 3370,
      "eds": 3371,
      "ĠMod": 3372,
      "ĠArgent": 3373,
      "reme": 3374,
      "Le": 3375,
      "ĠHung": 3376,
      "ivate": 3377,
      "Ġfeature": 3378,
      "Ġfig": 3379,
      "Ġmach": 3380,
      "ella": 3381,
      "Ġcommunity": 3382,
      "ĠScottish": 3383,
      "65": 3384,
      "asc": 3385,
      "ĠBig": 3386,
      "ĠPolish": 3387,
      "ĠÐ": 3388,
      "heast": 3389,
      "ira": 3390,
      "ĠYe": 3391,
      "Ġ1964": 3392,
      "Ġ1945": 3393,
      "ĠSenate": 3394,
      "Ġadminist": 3395,
      "Ġfif": 3396,
      "iano": 3397,
      "Ġcompan": 3398,
      "ĠFilm": 3399,
      "Ġproblem": 3400,
      "ply": 3401,
      "pher": 3402,
      "leg": 3403,
      "ĠRad": 3404,
      "oke": 3405,
      "Ġmountain": 3406,
      "aud": 3407,
      "Ġtree": 3408,
      "Ġcat": 3409,
      "ĠCivil": 3410,
      "ĠMin": 3411,
      "Ġforce": 3412,
      "Ġreturned": 3413,
      "1993": 3414,
      "song": 3415,
      "Ġnames": 3416,
      "ume": 3417,
      "Ġretired": 3418,
      "Ġpromot": 3419,
      "ground": 3420,
      "1980": 3421,
      "Ġstudied": 3422,
      "Ġchemical": 3423,
      "ĠSil": 3424,
      "osaur": 3425,
      "icle": 3426,
      "use": 3427,
      "ua": 3428,
      "year": 3429,
      "ĠJul": 3430,
      "Ġstri": 3431,
      "uman": 3432,
      "Ġbasketball": 3433,
      "onia": 3434,
      "Ġsaw": 3435,
      "Ġbattle": 3436,
      "ĠHel": 3437,
      "Ġnorthern": 3438,
      "Ġearth": 3439,
      "Ġmusical": 3440,
      "Ġmainly": 3441,
      "ficult": 3442,
      "Ġroom": 3443,
      "azz": 3444,
      "idence": 3445,
      "Ġgradu": 3446,
      "ĠFar": 3447,
      "1994": 3448,
      "Ġfall": 3449,
      "ethod": 3450,
      "ĠCenter": 3451,
      "li": 3452,
      "uan": 3453,
      "ĠCr": 3454,
      "ĠInt": 3455,
      "Ġadded": 3456,
      "Ã³n": 3457,
      "itzer": 3458,
      "Ġcou": 3459,
      "sex": 3460,
      "Ġmeas": 3461,
      "ĠProv": 3462,
      "ĠAustrian": 3463,
      "81": 3464,
      "aries": 3465,
      "ĠKn": 3466,
      "vey": 3467,
      "Ġallowed": 3468,
      "Com": 3469,
      "Ġunderst": 3470,
      "82": 3471,
      "yo": 3472,
      "Ġbox": 3473,
      "ĠSar": 3474,
      "ĠChe": 3475,
      "Ġchanges": 3476,
      "ĠDisney": 3477,
      "ivid": 3478,
      "Ġ1947": 3479,
      "Ġculture": 3480,
      "ois": 3481,
      "Ġaverage": 3482,
      "Ġ1948": 3483,
      "Ġdrug": 3484,
      "Ġreplaced": 3485,
      "formance": 3486,
      "Ġ=": 3487,
      "itiz": 3488,
      "ĠCO": 3489,
      "elt": 3490,
      "ĠHot": 3491,
      "ĠPre": 3492,
      "ĠKe": 3493,
      "aven": 3494,
      "iff": 3495,
      "Ġjud": 3496,
      "ĠSwedish": 3497,
      "LS": 3498,
      "rich": 3499,
      "Ġcelebr": 3500,
      "Ġthr": 3501,
      "Ġlaun": 3502,
      "Deaths": 3503,
      "When": 3504,
      "Ġcut": 3505,
      "ĠLuc": 3506,
      "aining": 3507,
      "Ġi": 3508,
      "Ġleave": 3509,
      "Ġ1966": 3510,
      "--": 3511,
      ".)": 3512,
      "Ġsite": 3513,
      "nder": 3514,
      "ette": 3515,
      "ĠFootball": 3516,
      "ĠLeg": 3517,
      "Ġ1942": 3518,
      "Ġvisit": 3519,
      "ĠSince": 3520,
      "ĠMos": 3521,
      "Ġstudents": 3522,
      "Ġconduct": 3523,
      "Ġterrit": 3524,
      "09": 3525,
      "oud": 3526,
      "Ġhom": 3527,
      "ĠParliament": 3528,
      "ĠRh": 3529,
      "ĠJoe": 3530,
      "also": 3531,
      "Ġinj": 3532,
      "idge": 3533,
      "ĠLake": 3534,
      "Ġdifficult": 3535,
      "Ġtransl": 3536,
      "ĠCastle": 3537,
      "mark": 3538,
      "Ġpur": 3539,
      "ĠSir": 3540,
      "ĠCamp": 3541,
      "ĠUr": 3542,
      "Ġthemselves": 3543,
      "upt": 3544,
      "Ġcentral": 3545,
      "Ġbaseball": 3546,
      "inter": 3547,
      "itte": 3548,
      "ĠHockey": 3549,
      "Ġgas": 3550,
      "Ġgun": 3551,
      "Ġcannot": 3552,
      "Ġ1965": 3553,
      "isco": 3554,
      "Can": 3555,
      "ĠLin": 3556,
      "ands": 3557,
      "ĠOf": 3558,
      "Ġrap": 3559,
      "ĠBritain": 3560,
      "Ġbuildings": 3561,
      "Ġbroadcast": 3562,
      "ĠDivision": 3563,
      "iÄĩ": 3564,
      "bour": 3565,
      "Ġast": 3566,
      "Ġord": 3567,
      "ĠYoung": 3568,
      "Ġstruct": 3569,
      "Ġsister": 3570,
      "ario": 3571,
      "Ġcost": 3572,
      "Ġdanc": 3573,
      "ipl": 3574,
      "ĠMuslim": 3575,
      "aign": 3576,
      "Ġsize": 3577,
      "Ġpen": 3578,
      "aware": 3579,
      "Ġnetwork": 3580,
      "ba": 3581,
      "Ġteacher": 3582,
      "oints": 3583,
      "Ġactivist": 3584,
      "74": 3585,
      "ersey": 3586,
      "ĠNorthern": 3587,
      "ĠViet": 3588,
      "Ġcandid": 3589,
      "03": 3590,
      "Ge": 3591,
      "2012": 3592,
      "Ġrule": 3593,
      "ternet": 3594,
      "Ġ1956": 3595,
      "Ġgoal": 3596,
      "Ġkilling": 3597,
      "New": 3598,
      "gar": 3599,
      "Ġbo": 3600,
      "icles": 3601,
      "omer": 3602,
      "ĠHa": 3603,
      "ĠLife": 3604,
      "uty": 3605,
      "Ġcurrently": 3606,
      "ĠTwo": 3607,
      "76": 3608,
      "ĠâĢĺ": 3609,
      "ĠLord": 3610,
      "ĠRail": 3611,
      "Ġang": 3612,
      "Ġ1963": 3613,
      "ĠJackson": 3614,
      "ĠScotland": 3615,
      "anda": 3616,
      "Ġ1962": 3617,
      "Ġinvest": 3618,
      "Ġresearch": 3619,
      "inger": 3620,
      "urity": 3621,
      "1992": 3622,
      "Ġ1961": 3623,
      "Ġ1944": 3624,
      "Ġrac": 3625,
      "Ġattempt": 3626,
      "cul": 3627,
      "ĠBu": 3628,
      "ateg": 3629,
      "Ġwood": 3630,
      "ali": 3631,
      "Ġfre": 3632,
      "ĠFox": 3633,
      "aine": 3634,
      "Ġcontinued": 3635,
      "Ġquickly": 3636,
      "hib": 3637,
      "ĠSol": 3638,
      "Ġcomed": 3639,
      "ference": 3640,
      "ĠWood": 3641,
      "Ġwhole": 3642,
      "ĠServ": 3643,
      "uture": 3644,
      "oved": 3645,
      "agn": 3646,
      "aki": 3647,
      "rie": 3648,
      "add": 3649,
      "ĠJe": 3650,
      "ylvan": 3651,
      "Ġbelieved": 3652,
      "ĠLater": 3653,
      "ĠRos": 3654,
      "ĠWrest": 3655,
      "een": 3656,
      "win": 3657,
      "ĠSong": 3658,
      "Ġmorning": 3659,
      "ĠTre": 3660,
      "Ġancient": 3661,
      "Ġuniversity": 3662,
      "ĠAsian": 3663,
      "Ġdidn": 3664,
      "ĠRepublican": 3665,
      "Ġnominated": 3666,
      "Ġdate": 3667,
      "stant": 3668,
      "04": 3669,
      "Ġ(;": 3670,
      "Ġ1920": 3671,
      "Ġge": 3672,
      "ĠJean": 3673,
      "Ġsomeone": 3674,
      "ĠPlay": 3675,
      "Ġhappened": 3676,
      "Ġarchitect": 3677,
      "ynasty": 3678,
      "Ġsat": 3679,
      "Ġfiction": 3680,
      "ĠBab": 3681,
      "ĠUk": 3682,
      "Ġelectric": 3683,
      "ĠÂ": 3684,
      "ĠBang": 3685,
      "ailable": 3686,
      "Ġpainter": 3687,
      ",\"": 3688,
      "Ġlaws": 3689,
      "Ġsymb": 3690,
      "bl": 3691,
      "wan": 3692,
      "à¸": 3693,
      "ready": 3694,
      "Ġdoc": 3695,
      "Ġstre": 3696,
      "abit": 3697,
      "ĠMark": 3698,
      "Ġbeginning": 3699,
      "Ġox": 3700,
      "icy": 3701,
      "Ġpred": 3702,
      "anding": 3703,
      "umi": 3704,
      "ĠClub": 3705,
      "ength": 3706,
      "Ġparticular": 3707,
      "Ġcourse": 3708,
      "ĠRepresentatives": 3709,
      "mas": 3710,
      "ĠCons": 3711,
      "ĠRo": 3712,
      "imb": 3713,
      "hester": 3714,
      "uit": 3715,
      "inet": 3716,
      "uments": 3717,
      "Polit": 3718,
      "Ġobs": 3719,
      "ospital": 3720,
      "Ġtried": 3721,
      "Ġcover": 3722,
      "Ġ80": 3723,
      "Ġtrack": 3724,
      "ĠTime": 3725,
      "usband": 3726,
      "ĠBo": 3727,
      "ĠNight": 3728,
      "Ġ77": 3729,
      "Ġrange": 3730,
      "Ġcritic": 3731,
      "vin": 3732,
      "ola": 3733,
      "ĠNow": 3734,
      "ĠVer": 3735,
      "Ġregular": 3736,
      "Ġball": 3737,
      "Ġlab": 3738,
      "adium": 3739,
      "Ġgreen": 3740,
      "ĠChief": 3741,
      "ĠSecond": 3742,
      "ĠDuke": 3743,
      "ĠFer": 3744,
      "iece": 3745,
      "ĠInter": 3746,
      "Ġ60": 3747,
      "Ġclos": 3748,
      "Ġ1954": 3749,
      "Ġprevious": 3750,
      "ĠSweden": 3751,
      "ving": 3752,
      "ĠCap": 3753,
      "Ġexcept": 3754,
      "Ġ1941": 3755,
      "Ġcreate": 3756,
      "uj": 3757,
      "Ġcoll": 3758,
      "Ġcases": 3759,
      "enty": 3760,
      "thur": 3761,
      "ĠSeries": 3762,
      "ĠCarolina": 3763,
      "Ġbank": 3764,
      "ami": 3765,
      "ĠBor": 3766,
      "ĠWW": 3767,
      "ĠKenn": 3768,
      "Ġshoot": 3769,
      "Ġnumbers": 3770,
      "Ġgets": 3771,
      "Ġfeatures": 3772,
      "ĠDelaware": 3773,
      "'d": 3774,
      "69": 3775,
      "urder": 3776,
      "Ġpoliticians": 3777,
      "Ġgetting": 3778,
      "Ġdiscovered": 3779,
      "ko": 3780,
      "Ġwestern": 3781,
      "ened": 3782,
      "Ġhours": 3783,
      "ĠJes": 3784,
      "Ġleaders": 3785,
      "GB": 3786,
      "Ġfoc": 3787,
      "Ġasked": 3788,
      "ĠInstitute": 3789,
      "iverse": 3790,
      "Ġweap": 3791,
      "Ġ1949": 3792,
      "Ġrain": 3793,
      "Ġcollege": 3794,
      "embly": 3795,
      "ointed": 3796,
      "ylvania": 3797,
      "Ġtropical": 3798,
      "ĠMov": 3799,
      "Ġlower": 3800,
      "ĠGroup": 3801,
      "Ġ1936": 3802,
      "Ġestablish": 3803,
      "Ġwebsite": 3804,
      "Ph": 3805,
      "Ġfur": 3806,
      "Ġdig": 3807,
      "ĠHill": 3808,
      "see": 3809,
      "2017": 3810,
      "Ġrather": 3811,
      "Ġimm": 3812,
      "hood": 3813,
      "rong": 3814,
      "Ġbur": 3815,
      "Ġthing": 3816,
      "ĠWal": 3817,
      "iple": 3818,
      "Ġlik": 3819,
      "Ġ1955": 3820,
      "ervatory": 3821,
      "Ġprograms": 3822,
      "Ed": 3823,
      "Ġmarket": 3824,
      "ĠCompany": 3825,
      "Bl": 3826,
      "Ġmiss": 3827,
      "Ġdou": 3828,
      "ili": 3829,
      "Ġrelated": 3830,
      "ĠElst": 3831,
      "Ġindependent": 3832,
      "Ġsuggest": 3833,
      "John": 3834,
      "incess": 3835,
      "Ġwid": 3836,
      "Ġcle": 3837,
      "ĠDirect": 3838,
      "Ġearn": 3839,
      "Ġstories": 3840,
      "Ġarrest": 3841,
      "Ġquite": 3842,
      "ĠEUN": 3843,
      "ken": 3844,
      "Ġfast": 3845,
      "iced": 3846,
      "Ġmiddle": 3847,
      "ĠAD": 3848,
      "Ġhous": 3849,
      "Ġalready": 3850,
      "Ġ56": 3851,
      "Ġreligious": 3852,
      "sw": 3853,
      "ĠGal": 3854,
      "Ġsoldiers": 3855,
      "Ġoriginally": 3856,
      "ĠAf": 3857,
      "ĠStan": 3858,
      "2014": 3859,
      "ĠConf": 3860,
      "ĠBrazilian": 3861,
      "ĠGeorgia": 3862,
      "Ġcells": 3863,
      "ĠHaw": 3864,
      "Ġwhy": 3865,
      "ĠColumb": 3866,
      "Ġbusinessman": 3867,
      "sen": 3868,
      "well": 3869,
      "Ġoffer": 3870,
      "ĠTH": 3871,
      "ĠTim": 3872,
      "itted": 3873,
      "Ġsecret": 3874,
      "ĠKorea": 3875,
      "Ġavailable": 3876,
      "Ġbehind": 3877,
      "ias": 3878,
      "ora": 3879,
      "ĠPress": 3880,
      "Ġsmaller": 3881,
      "zech": 3882,
      "ransport": 3883,
      "CA": 3884,
      "ĠSqu": 3885,
      "ĠPac": 3886,
      "ĠJud": 3887,
      "ĠOld": 3888,
      "Ġcho": 3889,
      "ube": 3890,
      "Ġfeet": 3891,
      "Ġanimated": 3892,
      "ĠTurk": 3893,
      "Sp": 3894,
      "eks": 3895,
      "enth": 3896,
      "Ġ1929": 3897,
      "Ġnuc": 3898,
      "rack": 3899,
      "1991": 3900,
      "Ġnewsp": 3901,
      "Ġsch": 3902,
      "ĠAp": 3903,
      "ĠMiddle": 3904,
      "Ġ1943": 3905,
      "Ġ1934": 3906,
      "Ġminutes": 3907,
      "ĠDaniel": 3908,
      "Man": 3909,
      "bit": 3910,
      "ras": 3911,
      "Ġtheory": 3912,
      "Ġmale": 3913,
      "ĠTok": 3914,
      "agan": 3915,
      "ĠSociety": 3916,
      "Ġleague": 3917,
      "Ġ1946": 3918,
      "ĠKorean": 3919,
      "Ġer": 3920,
      "ĠAv": 3921,
      "amer": 3922,
      "ĠHind": 3923,
      "ĠStep": 3924,
      "Ġ1931": 3925,
      "ements": 3926,
      "Ġleading": 3927,
      "She": 3928,
      "ga": 3929,
      "Ġcitiz": 3930,
      "uge": 3931,
      "Ġparticip": 3932,
      "Ġmiles": 3933,
      "ĠTro": 3934,
      "riage": 3935,
      "Ġshot": 3936,
      "Ġspeed": 3937,
      "ĠEnter": 3938,
      "can": 3939,
      "ny": 3940,
      "Ġcell": 3941,
      "Ġfac": 3942,
      "Ġdog": 3943,
      "ĠLu": 3944,
      "ĠLet": 3945,
      "ĠVill": 3946,
      "Ġ66": 3947,
      "Ġdoing": 3948,
      "Ġindivid": 3949,
      "Ġhumans": 3950,
      "Ġrom": 3951,
      "ova": 3952,
      "Ġrespons": 3953,
      "Ġhusband": 3954,
      "ĠCro": 3955,
      "chan": 3956,
      "Ġseat": 3957,
      "Ġlawyer": 3958,
      "Ġservices": 3959,
      "Ġeducation": 3960,
      "ĠPenns": 3961,
      "02": 3962,
      "tain": 3963,
      "ĠPan": 3964,
      "etts": 3965,
      "Ġsequ": 3966,
      "range": 3967,
      "Ġpersonal": 3968,
      "Ġsystems": 3969,
      "ĠMax": 3970,
      "ĠJersey": 3971,
      "Ġ1958": 3972,
      "ennis": 3973,
      "ittee": 3974,
      "adel": 3975,
      "andy": 3976,
      "ounds": 3977,
      "Ġentire": 3978,
      "Ġdescribed": 3979,
      "Ġ1926": 3980,
      "Ġalthough": 3981,
      "ĠShow": 3982,
      "hess": 3983,
      "anguage": 3984,
      "Ġimpro": 3985,
      "Ġdistributed": 3986,
      "Brit": 3987,
      "Fran": 3988,
      "sort": 3989,
      "zy": 3990,
      "Ġder": 3991,
      "Ġadult": 3992,
      "Ġ1957": 3993,
      "Ġbrought": 3994,
      "Ġfollowed": 3995,
      "iences": 3996,
      "Ġsn": 3997,
      "ati": 3998,
      "ĠTod": 3999,
      "igan": 4000,
      "Ġago": 4001,
      "Ġitself": 4002,
      "Ġcrime": 4003,
      "Early": 4004,
      "eld": 4005,
      "ĠMaria": 4006,
      "1989": 4007,
      "ĠTeam": 4008,
      "Ġaud": 4009,
      "Ġpoints": 4010,
      "Ġmethod": 4011,
      "ĠCa": 4012,
      "ĠGree": 4013,
      "opt": 4014,
      "ĠUs": 4015,
      "Ġwinners": 4016,
      "elly": 4017,
      "Ġvir": 4018,
      "Ġlarger": 4019,
      "ĠAdd": 4020,
      "Ġofficer": 4021,
      "Ġengineer": 4022,
      "Ġrelationship": 4023,
      "Ġcompanies": 4024,
      "ĠPennsylvania": 4025,
      "het": 4026,
      "ela": 4027,
      "adian": 4028,
      "Ġgrew": 4029,
      "Ġ1959": 4030,
      "Ġaccept": 4031,
      "Ġsuper": 4032,
      "Ġoldest": 4033,
      "inois": 4034,
      "Ġepisodes": 4035,
      "mond": 4036,
      "ĠBern": 4037,
      "Ġreason": 4038,
      "achus": 4039,
      "ĠJohnson": 4040,
      "Ġprobably": 4041,
      "kin": 4042,
      "Ġ110": 4043,
      "leep": 4044,
      "illy": 4045,
      "Ġ1952": 4046,
      "Ġblue": 4047,
      "Ġquest": 4048,
      "stein": 4049,
      "ĠJones": 4050,
      "2019": 4051,
      "Ġ75": 4052,
      "ploy": 4053,
      "Ġ1939": 4054,
      "value": 4055,
      "Ġreported": 4056,
      "Ġdark": 4057,
      "ĠMatt": 4058,
      "ĠHistory": 4059,
      "ears": 4060,
      "Ġenvironment": 4061,
      "Ġtraditional": 4062,
      "ĠFIFA": 4063,
      "Ġcensus": 4064,
      "ĠLittle": 4065,
      "ĠFC": 4066,
      "ĠWales": 4067,
      "Ġ1953": 4068,
      "anned": 4069,
      "ĠDepartment": 4070,
      "Sc": 4071,
      "ray": 4072,
      "Ã§": 4073,
      "ĠMah": 4074,
      "Ġcolon": 4075,
      "Ġmedia": 4076,
      "Ġpot": 4077,
      "Ġ1928": 4078,
      "Ġreview": 4079,
      "ĠRoad": 4080,
      "ĠKar": 4081,
      "Ġ2023": 4082,
      "2015": 4083,
      "Ġ1951": 4084,
      "Ġalbums": 4085,
      "Ġwinner": 4086,
      "ĠJewish": 4087,
      "onic": 4088,
      "Ġhol": 4089,
      "ques": 4090,
      "pped": 4091,
      "Ġ1933": 4092,
      "ographer": 4093,
      "Ġdesigned": 4094,
      "Ser": 4095,
      "min": 4096,
      "atre": 4097,
      "ĠOK": 4098,
      "2013": 4099,
      "isher": 4100,
      "ĠMat": 4101,
      "Ġele": 4102,
      "ĠOut": 4103,
      "ĠKob": 4104,
      "izabeth": 4105,
      "Ġscored": 4106,
      "stitut": 4107,
      "Ġmatches": 4108,
      "Ġcampaign": 4109,
      "Ġwalk": 4110,
      "1987": 4111,
      "1988": 4112,
      "ĠClass": 4113,
      "Ġmetal": 4114,
      "ĠNobel": 4115,
      "ja": 4116,
      "Ġways": 4117,
      "Ġcold": 4118,
      "Ġpsych": 4119,
      "rol": 4120,
      "ĠCy": 4121,
      "Ġste": 4122,
      "Ġpoor": 4123,
      "achusetts": 4124,
      "Ġtaking": 4125,
      "ĠPers": 4126,
      "aching": 4127,
      "struction": 4128,
      "Ġfailure": 4129,
      "ww": 4130,
      "Ġtax": 4131,
      "Ġtells": 4132,
      "Ġaffect": 4133,
      "Ġwor": 4134,
      "ĠPLS": 4135,
      "ĠFe": 4136,
      "ĠKOR": 4137,
      "Ġ)": 4138,
      "Ġsun": 4139,
      "Ġoil": 4140,
      "Ġinf": 4141,
      "ĠLong": 4142,
      "iment": 4143,
      "Ġheavy": 4144,
      "phy": 4145,
      "Ġforms": 4146,
      "Ġsubject": 4147,
      "ĠIllinois": 4148,
      "Ġath": 4149,
      "onald": 4150,
      "ĠHon": 4151,
      "ĠBul": 4152,
      "undred": 4153,
      "airman": 4154,
      "Ġslow": 4155,
      "las": 4156,
      "inks": 4157,
      "ĠCzech": 4158,
      "ĠGirl": 4159,
      "ĠEastern": 4160,
      "aches": 4161,
      "Ġhigher": 4162,
      "Ġcirc": 4163,
      "arden": 4164,
      "elled": 4165,
      "Ġ1932": 4166,
      "Ġ1937": 4167,
      "Ġ1938": 4168,
      "Ġolder": 4169,
      "Ġeastern": 4170,
      "Ġturned": 4171,
      "Ġplease": 4172,
      "BA": 4173,
      "asy": 4174,
      "ĠCharl": 4175,
      "Ġwrite": 4176,
      "Ġbirds": 4177,
      "kins": 4178,
      "aring": 4179,
      "ĠLem": 4180,
      "ĠWars": 4181,
      "Ġawarded": 4182,
      "For": 4183,
      "Äģ": 4184,
      "heim": 4185,
      "Ġ1900": 4186,
      "ĠLes": 4187,
      "Ġkept": 4188,
      "ĠWat": 4189,
      "ĠOver": 4190,
      "oston": 4191,
      "ĠAtlantic": 4192,
      "with": 4193,
      "ential": 4194,
      "Ġ1923": 4195,
      "uries": 4196,
      "Ġtext": 4197,
      "ĠPhilipp": 4198,
      "orial": 4199,
      "Ġfav": 4200,
      "ĠBudd": 4201,
      "ĠRome": 4202,
      "ĠVan": 4203,
      "ĠAlso": 4204,
      "ĠArmen": 4205,
      "Ġanything": 4206,
      "Ġsurface": 4207,
      "Ġneeded": 4208,
      "ĠBelg": 4209,
      "ĠFrancisco": 4210,
      "ĠMassachusetts": 4211,
      "BS": 4212,
      "ffer": 4213,
      "rim": 4214,
      "Ġpick": 4215,
      "ĠHor": 4216,
      "ĠLib": 4217,
      "Ġprivate": 4218,
      "gal": 4219,
      "edd": 4220,
      "ĠTri": 4221,
      "ĠBal": 4222,
      "ĠFort": 4223,
      "Ġfore": 4224,
      "ĠOff": 4225,
      "ancy": 4226,
      "Ġopera": 4227,
      "Ġborder": 4228,
      "Ġtemperature": 4229,
      "itzerland": 4230,
      "ao": 4231,
      "lav": 4232,
      "ĠLiber": 4233,
      "Ġcontract": 4234,
      "ĠPoland": 4235,
      "Ġmagazine": 4236,
      "ĠBillboard": 4237,
      "Ġcycl": 4238,
      "Col": 4239,
      "orf": 4240,
      "Ġminister": 4241,
      "Ġlo": 4242,
      "ĠWall": 4243,
      "Ġegg": 4244,
      "icture": 4245,
      "Ġ106": 4246,
      "Ġgoals": 4247,
      "ĠMexican": 4248,
      "bre": 4249,
      "oid": 4250,
      "Ġbring": 4251,
      "ĠSk": 4252,
      "Ġren": 4253,
      "1986": 4254,
      "ĠBh": 4255,
      "ĠDi": 4256,
      "ĠFame": 4257,
      "ĠJac": 4258,
      "iant": 4259,
      "osh": 4260,
      "ĠAmericans": 4261,
      "Ġneigh": 4262,
      "Ġnews": 4263,
      "Ã¡n": 4264,
      "Ġesc": 4265,
      "ĠObservatory": 4266,
      "FC": 4267,
      "Some": 4268,
      "Ġsen": 4269,
      "Ġ1925": 4270,
      "aya": 4271,
      "ĠNations": 4272,
      "ĠNaz": 4273,
      "oper": 4274,
      "ĠOtt": 4275,
      "Ġsexual": 4276,
      "songwriter": 4277,
      "ĠBet": 4278,
      "ĠPop": 4279,
      "ĠRevolution": 4280,
      "Ġschools": 4281,
      "ĠBarb": 4282,
      "ĠWilliams": 4283,
      "ragon": 4284,
      "Ġdefeated": 4285,
      "Ġsummer": 4286,
      "ĠMot": 4287,
      "irit": 4288,
      "Ġchampionship": 4289,
      "Ġchampion": 4290,
      "riters": 4291,
      "Ġweeks": 4292,
      "ĠWhile": 4293,
      "remier": 4294,
      "ĠAlexander": 4295,
      "ais": 4296,
      "uer": 4297,
      "Ġtourn": 4298,
      "Ġbass": 4299,
      "Ġmurder": 4300,
      "ĠJun": 4301,
      "Ġspent": 4302,
      "VID": 4303,
      "yan": 4304,
      "enced": 4305,
      "ouch": 4306,
      "Ġhyd": 4307,
      "Ġ1927": 4308,
      "ĠBre": 4309,
      "Ġthous": 4310,
      "ĠDoug": 4311,
      "ĠVen": 4312,
      "inner": 4313,
      "ĠOrder": 4314,
      "Ġpaper": 4315,
      "ingu": 4316,
      "Ġbeaut": 4317,
      "Ġ49": 4318,
      "ĠMario": 4319,
      "Ġaircraft": 4320,
      "ĠBerlin": 4321,
      "adesh": 4322,
      "Ġface": 4323,
      "Ġreb": 4324,
      "Ġcarry": 4325,
      "Ġstarring": 4326,
      "Ad": 4327,
      "iec": 4328,
      "ises": 4329,
      "Ġbomb": 4330,
      "emy": 4331,
      "umm": 4332,
      "2018": 4333,
      "onder": 4334,
      "Ġdivided": 4335,
      "Ġoppos": 4336,
      "inary": 4337,
      "ĠFamily": 4338,
      "ĠWater": 4339,
      "iful": 4340,
      "Ġsport": 4341,
      "Ġcart": 4342,
      "icine": 4343,
      "ĠMir": 4344,
      "Ġlines": 4345,
      "ĠRom": 4346,
      "igned": 4347,
      "aval": 4348,
      "ĠUE": 4349,
      "Ġseasons": 4350,
      "ĠDev": 4351,
      "ĠHarry": 4352,
      "ĠWrestling": 4353,
      "From": 4354,
      "ito": 4355,
      "ila": 4356,
      "ĠPictures": 4357,
      "Ġartists": 4358,
      "Ġswim": 4359,
      "ĠWindows": 4360,
      "Politicians": 4361,
      "cel": 4362,
      "Ġpil": 4363,
      "ĠTown": 4364,
      "Ġ1922": 4365,
      "ĠWay": 4366,
      "ĠNews": 4367,
      "ĠCOVID": 4368,
      "ouri": 4369,
      "ĠBad": 4370,
      "Ġgives": 4371,
      "ĠOcean": 4372,
      "ĠAlbert": 4373,
      "obile": 4374,
      "Ġpassed": 4375,
      "Ġvocals": 4376,
      "ĠAk": 4377,
      "ĠCreek": 4378,
      "ĠRog": 4379,
      "Ġminor": 4380,
      "Ġcompetition": 4381,
      "ez": 4382,
      "Ġspread": 4383,
      "ĠArthur": 4384,
      "acter": 4385,
      "Ġskin": 4386,
      "Ġrules": 4387,
      "gn": 4388,
      "pan": 4389,
      "yp": 4390,
      "erve": 4391,
      "Ġtowards": 4392,
      "ĠPope": 4393,
      "Ġforced": 4394,
      "ceed": 4395,
      "Ġperformance": 4396,
      "Ġmunicipality": 4397,
      "SA": 4398,
      "war": 4399,
      "Ð°": 4400,
      "ero": 4401,
      "ĠCur": 4402,
      "overs": 4403,
      "ulture": 4404,
      "Ġcauses": 4405,
      "ĠAirport": 4406,
      "wide": 4407,
      "erc": 4408,
      "Ġins": 4409,
      "ĠAccording": 4410,
      "Ġ1918": 4411,
      "anton": 4412,
      "Ġthroughout": 4413,
      "ĠSwitzerland": 4414,
      "Ġcovered": 4415,
      "ĠGh": 4416,
      "ishing": 4417,
      "Ġlett": 4418,
      "Ġintroduced": 4419,
      "ĠLo": 4420,
      "chie": 4421,
      "ressed": 4422,
      "Ġqual": 4423,
      "Ġmedical": 4424,
      "Ġreligion": 4425,
      "Ġscientists": 4426,
      "ĠCamb": 4427,
      "ĠMu": 4428,
      "ayashi": 4429,
      "ote": 4430,
      "ĠNick": 4431,
      "Ġconv": 4432,
      "ĠSocial": 4433,
      "icted": 4434,
      "Ġ1935": 4435,
      "Ġcommonly": 4436,
      "ĠAnton": 4437,
      "hold": 4438,
      "Ġ113": 4439,
      "Ġmess": 4440,
      "ĠAh": 4441,
      "ĠLine": 4442,
      "Ġexc": 4443,
      "2016": 4444,
      "Ã±": 4445,
      "ĠSouthern": 4446,
      "ĠRam": 4447,
      "Ġupon": 4448,
      "Ġlooking": 4449,
      "ĠMcC": 4450,
      "Ġletter": 4451,
      "79": 4452,
      "Ġwide": 4453,
      "asion": 4454,
      "ĠMem": 4455,
      "ĠRay": 4456,
      "ums": 4457,
      "Ġdeep": 4458,
      "ĠLeon": 4459,
      "ĠBefore": 4460,
      "Ġanimal": 4461,
      "British": 4462,
      "orrow": 4463,
      "ĠBlue": 4464,
      "Ġowned": 4465,
      "Ġinvolved": 4466,
      "Ġdegree": 4467,
      "Re": 4468,
      "ĠSyr": 4469,
      "igr": 4470,
      "uses": 4471,
      "elle": 4472,
      "ĠLar": 4473,
      "throp": 4474,
      "Ġheard": 4475,
      "Ġneg": 4476,
      "Ġtrue": 4477,
      "Ġoccur": 4478,
      "Ġastron": 4479,
      "Ġtable": 4480,
      "ĠSand": 4481,
      "ĠWild": 4482,
      "ĠGall": 4483,
      "Ġ500": 4484,
      "Ġsingers": 4485,
      "Ġassist": 4486,
      "Ġeth": 4487,
      "Ġbal": 4488,
      "âĢľ": 4489,
      "lying": 4490,
      "ĠEll": 4491,
      "ails": 4492,
      "ĠElizabeth": 4493,
      "78": 4494,
      "Ġfuture": 4495,
      "icated": 4496,
      "Ġinfect": 4497,
      "Ġdu": 4498,
      "Ġkil": 4499,
      "uts": 4500,
      "Ġarm": 4501,
      "Ġenc": 4502,
      "Ġaccount": 4503,
      "Ġrunning": 4504,
      "UK": 4505,
      "arter": 4506,
      "Ġbit": 4507,
      "ilities": 4508,
      "Ġlength": 4509,
      "Ġdeal": 4510,
      "Ġselected": 4511,
      "rang": 4512,
      "Ġbecoming": 4513,
      "Ġseparate": 4514,
      "oices": 4515,
      "hew": 4516,
      "ĠPo": 4517,
      "Ġcharge": 4518,
      "Ġdrink": 4519,
      "Ġsoftware": 4520,
      "ĠTHM": 4521,
      "Be": 4522,
      "ping": 4523,
      "rig": 4524,
      "inct": 4525,
      "Ġburn": 4526,
      "Ġbillion": 4527,
      "riz": 4528,
      "ips": 4529,
      "Ġcentre": 4530,
      "63": 4531,
      "house": 4532,
      "ĠEnd": 4533,
      "ability": 4534,
      "Ġmoving": 4535,
      "1985": 4536,
      "Ġofficially": 4537,
      "Ġanti": 4538,
      "GBT": 4539,
      "ĠConfeder": 4540,
      "La": 4541,
      "fred": 4542,
      "gu": 4543,
      "pa": 4544,
      "align": 4545,
      "ĠElect": 4546,
      "merc": 4547,
      "Ġprofessor": 4548,
      "hing": 4549,
      "Ġaff": 4550,
      "ĠSus": 4551,
      "rial": 4552,
      "ĠIslands": 4553,
      "1970": 4554,
      "1979": 4555,
      "Ġoccup": 4556,
      "Ġtroops": 4557,
      "ĠVietnam": 4558,
      "bury": 4559,
      "inson": 4560,
      "2020": 4561,
      "Ġruns": 4562,
      "ĠGlob": 4563,
      "Ġsilver": 4564,
      "road": 4565,
      "Ġmind": 4566,
      "ĠBell": 4567,
      "Ġstep": 4568,
      "ĠKen": 4569,
      "Ġinterview": 4570,
      "Ġideas": 4571,
      "Ġri": 4572,
      "Ġrow": 4573,
      "Ġattract": 4574,
      "Ġaddition": 4575,
      "Ġorganization": 4576,
      "Ġcomedian": 4577,
      "ieces": 4578,
      "Ġtal": 4579,
      "Ġ1921": 4580,
      "ĠBat": 4581,
      "Ġyellow": 4582,
      "Ġbuy": 4583,
      "shire": 4584,
      "Ġpowerful": 4585,
      "Ġdamage": 4586,
      "Ġ1924": 4587,
      "Ġeditor": 4588,
      "ĠChristmas": 4589,
      "Ġassoci": 4590,
      "Canadian": 4591,
      "Is": 4592,
      "ĠTop": 4593,
      "ĠBBC": 4594,
      "Ġvon": 4595,
      "itting": 4596,
      "ĠCommission": 4597,
      "Ġmachine": 4598,
      "Ġop": 4599,
      "ĠNic": 4600,
      "ĠKent": 4601,
      "aged": 4602,
      "ĠYour": 4603,
      "Ġactive": 4604,
      "Ġabs": 4605,
      "Ġfounder": 4606,
      "Ġtrade": 4607,
      "ĠTrans": 4608,
      "apore": 4609,
      "phia": 4610,
      "ĠAnne": 4611,
      "Ġeventually": 4612,
      "Ġindustry": 4613,
      "Ġforeign": 4614,
      "lar": 4615,
      "icist": 4616,
      "omy": 4617,
      "ĠBank": 4618,
      "ĠLab": 4619,
      "akh": 4620,
      "Ġyet": 4621,
      "Ġexecutive": 4622,
      "Ġ90": 4623,
      "Ġdriver": 4624,
      "Ġaccident": 4625,
      "Ġmusicians": 4626,
      "Ġrespect": 4627,
      "Ġguitarist": 4628,
      "tainment": 4629,
      "pos": 4630,
      "iny": 4631,
      "edia": 4632,
      "Ġdiss": 4633,
      "Ġdoctor": 4634,
      "venture": 4635,
      "Ġbands": 4636,
      "lications": 4637,
      "Ġeyes": 4638,
      "hy": 4639,
      "king": 4640,
      "Ġfought": 4641,
      "Ġinsp": 4642,
      "ĠEv": 4643,
      "ĠEach": 4644,
      "icks": 4645,
      "ĠMayor": 4646,
      "Ġprevent": 4647,
      "Ġsuffer": 4648,
      "Ġphilosopher": 4649,
      "iplom": 4650,
      "rat": 4651,
      "esc": 4652,
      "ĠFour": 4653,
      "ĠGen": 4654,
      "Ġ35": 4655,
      "areer": 4656,
      "Ġwriters": 4657,
      "Ġtrees": 4658,
      "Ġdestroyed": 4659,
      "ĠPacific": 4660,
      "ker": 4661,
      "Ġfru": 4662,
      "ĠLady": 4663,
      "alled": 4664,
      "teen": 4665,
      "Ġraised": 4666,
      "Ġbegins": 4667,
      "ghan": 4668,
      "Ġsem": 4669,
      "ilies": 4670,
      "ĠHere": 4671,
      "weight": 4672,
      "Ġaccess": 4673,
      "Se": 4674,
      "joy": 4675,
      "Ġtall": 4676,
      "Ġwear": 4677,
      "Ġislands": 4678,
      "ĠAlthough": 4679,
      "Ġaccording": 4680,
      "pose": 4681,
      "Ġemb": 4682,
      "ĠSa": 4683,
      "ĠSund": 4684,
      "Ġdraw": 4685,
      "Ġhundred": 4686,
      "ĠNavy": 4687,
      "ulpt": 4688,
      "Ġshowed": 4689,
      "Ġgovernor": 4690,
      "Ġvote": 4691,
      "ĠSanta": 4692,
      "ĠJustice": 4693,
      "Ġschol": 4694,
      "All": 4695,
      "During": 4696,
      "FL": 4697,
      "light": 4698,
      "no": 4699,
      "Ã£": 4700,
      "org": 4701,
      "aria": 4702,
      "Ġhair": 4703,
      "1983": 4704,
      "anna": 4705,
      "Ġruled": 4706,
      "present": 4707,
      "Ġfederal": 4708,
      "Ġmom": 4709,
      "ables": 4710,
      "ĠInc": 4711,
      "Ġleaves": 4712,
      "Ġlegal": 4713,
      "ĠVictoria": 4714,
      "Ġpeace": 4715,
      "ĠProvince": 4716,
      "ĠJeff": 4717,
      "adelphia": 4718,
      "mad": 4719,
      "Ãº": 4720,
      "ori": 4721,
      "Ġve": 4722,
      "ĠChild": 4723,
      "ĠAdm": 4724,
      "Ġbiggest": 4725,
      "Ġstopped": 4726,
      "Ġgenerally": 4727,
      "Ġcitizens": 4728,
      "eda": 4729,
      "Ġ79": 4730,
      "ĠAlb": 4731,
      "Ġprint": 4732,
      "Ġstudies": 4733,
      "ervation": 4734,
      "Pro": 4735,
      "vis": 4736,
      "itude": 4737,
      "ĠCorn": 4738,
      "Ġstations": 4739,
      "ardo": 4740,
      "ifican": 4741,
      "Ġring": 4742,
      "Ġcontains": 4743,
      "Ġsociety": 4744,
      "ĠAssembly": 4745,
      "ĠEntertainment": 4746,
      "Pr": 4747,
      "Ġinit": 4748,
      "Ġdance": 4749,
      "ĠGer": 4750,
      "ĠJoh": 4751,
      "istic": 4752,
      "lled": 4753,
      "Ġstarts": 4754,
      "ĠGovernment": 4755,
      "71": 4756,
      "isa": 4757,
      "ĠCub": 4758,
      "ĠBow": 4759,
      "Ġspl": 4760,
      "ĠDef": 4761,
      "Ġtyp": 4762,
      "Ġterms": 4763,
      "Ġmagn": 4764,
      "Ġfifth": 4765,
      "dess": 4766,
      "Ġdanger": 4767,
      "ĠBoston": 4768,
      "Ġactually": 4769,
      "ĠIndepend": 4770,
      "Ġcollection": 4771,
      "ucky": 4772,
      "ĠMissouri": 4773,
      "reedom": 4774,
      "iography": 4775,
      "pet": 4776,
      "Ġap": 4777,
      "Ġlay": 4778,
      "ĠFeder": 4779,
      "mann": 4780,
      "Ġbelong": 4781,
      "Ġmarriage": 4782,
      "da": 4783,
      "lers": 4784,
      "Ġplaced": 4785,
      "rence": 4786,
      "Ġelectron": 4787,
      "ĠProfess": 4788,
      "Ġnormal": 4789,
      "ĠKobayashi": 4790,
      "Ind": 4791,
      "ĠMajor": 4792,
      "rap": 4793,
      "ager": 4794,
      "illed": 4795,
      "Ġcoming": 4796,
      "ĠFlight": 4797,
      "Ġstandard": 4798,
      "ĠTokyo": 4799,
      "den": 4800,
      "sk": 4801,
      "Ġinst": 4802,
      "ĠMAS": 4803,
      "ĠLy": 4804,
      "ader": 4805,
      "ĠOb": 4806,
      "ntario": 4807,
      "ĠThree": 4808,
      "vention": 4809,
      "Ġelectr": 4810,
      "uh": 4811,
      "Ġcer": 4812,
      "ĠSub": 4813,
      "Ġnine": 4814,
      "ĠOx": 4815,
      "sey": 4816,
      "Ġclimate": 4817,
      "Ġflight": 4818,
      "Ġprep": 4819,
      "ĠAmb": 4820,
      "Ġwhether": 4821,
      "Sport": 4822,
      "ĠTour": 4823,
      "amin": 4824,
      "ĠDar": 4825,
      "ĠChile": 4826,
      "ĠChris": 4827,
      "ĠPrincess": 4828,
      "Ġmultiple": 4829,
      "Ġdocument": 4830,
      "Am": 4831,
      "Ġwatch": 4832,
      "Ġfoot": 4833,
      "asing": 4834,
      "ĠAut": 4835,
      "ĠMore": 4836,
      "state": 4837,
      "anta": 4838,
      "ennes": 4839,
      "Ġsimply": 4840,
      "ĠSenator": 4841,
      "poration": 4842,
      "Ġsource": 4843,
      "Ġtournament": 4844,
      "Ġpiece": 4845,
      "amber": 4846,
      "ĠFire": 4847,
      "ĠKor": 4848,
      "aga": 4849,
      "ĠMarc": 4850,
      "aren": 4851,
      "text": 4852,
      "Ġstarting": 4853,
      "Ġemploy": 4854,
      "ĠAbout": 4855,
      "ĠValley": 4856,
      "Ġsymbol": 4857,
      "68": 4858,
      "Te": 4859,
      "kh": 4860,
      "liga": 4861,
      "Ġcook": 4862,
      "Ġnature": 4863,
      "raine": 4864,
      "Ġcollect": 4865,
      "ĠGolden": 4866,
      "And": 4867,
      "Ġmic": 4868,
      "ĠMen": 4869,
      "uten": 4870,
      "Ġjazz": 4871,
      "ĠAnim": 4872,
      "Ġappointed": 4873,
      "Ġdivision": 4874,
      "Ġelse": 4875,
      "Ġearlier": 4876,
      "Writers": 4877,
      "Ġ1919": 4878,
      "ĠBall": 4879,
      "ĠPen": 4880,
      "ĠDie": 4881,
      "ĠFestival": 4882,
      "ĠEp": 4883,
      "ucation": 4884,
      "izumi": 4885,
      "Ġsingles": 4886,
      "Ġmyth": 4887,
      "Ġsurround": 4888,
      "Ġemerg": 4889,
      "Ġsounds": 4890,
      "ĠSingapore": 4891,
      "Ġnewspaper": 4892,
      "Ã´": 4893,
      "etro": 4894,
      "ĠFr": 4895,
      "unch": 4896,
      "Ġmeant": 4897,
      "Ġsculpt": 4898,
      "ĠJane": 4899,
      "1984": 4900,
      "Ġedition": 4901,
      "Ġlooks": 4902,
      "Ġpresidential": 4903,
      "61": 4904,
      "oes": 4905,
      "Ã¥": 4906,
      "Ġself": 4907,
      "Ġinh": 4908,
      "roke": 4909,
      "ĠLind": 4910,
      "Ġheat": 4911,
      "ĠTechn": 4912,
      "Ġtowns": 4913,
      "Ġsitu": 4914,
      "Ġterritory": 4915,
      "chest": 4916,
      "language": 4917,
      "Ã¢": 4918,
      "arr": 4919,
      "ĠSometimes": 4920,
      "Ġdiplom": 4921,
      "ctions": 4922,
      "eman": 4923,
      "endo": 4924,
      "1981": 4925,
      "enna": 4926,
      "ĠAtt": 4927,
      "ĠBridge": 4928,
      "ĠUSA": 4929,
      "ĠLemmon": 4930,
      "iac": 4931,
      "Ġwild": 4932,
      "Ġhurricane": 4933,
      "overy": 4934,
      "ĠKong": 4935,
      "ify": 4936,
      "ĠAnother": 4937,
      "Ġindependence": 4938,
      "ĠSystem": 4939,
      "Will": 4940,
      "rupt": 4941,
      "ĠÅ": 4942,
      "Ġsa": 4943,
      "Ġbott": 4944,
      "Ġbought": 4945,
      "iting": 4946,
      "itation": 4947,
      "ĠMike": 4948,
      "utt": 4949,
      "ĠCommon": 4950,
      "burgh": 4951,
      "Ġlikely": 4952,
      "ault": 4953,
      "oral": 4954,
      "ishes": 4955,
      "ĠTay": 4956,
      "ĠIra": 4957,
      "ĠLike": 4958,
      "ĠNap": 4959,
      "ĠGram": 4960,
      "istry": 4961,
      "Ġwhose": 4962,
      "resh": 4963,
      "Ġspok": 4964,
      "Ġenjoy": 4965,
      "Ġacadem": 4966,
      "ĠAndrew": 4967,
      "1982": 4968,
      "ĠForce": 4969,
      "Ġsupported": 4970,
      "One": 4971,
      "Ġsus": 4972,
      "ication": 4973,
      "Ġvan": 4974,
      "Ġunits": 4975,
      "ĠSpec": 4976,
      "Ġadopt": 4977,
      "Ġflag": 4978,
      "Ġfighting": 4979,
      "cest": 4980,
      "Ġcode": 4981,
      "ĠAirl": 4982,
      "odies": 4983,
      "aret": 4984,
      "awn": 4985,
      "ension": 4986,
      "wegian": 4987,
      "ĠWhy": 4988,
      "Ġprem": 4989,
      "medi": 4990,
      "Ġscreenwriter": 4991,
      "ĠToday": 4992,
      "ĠSel": 4993,
      "ĠCross": 4994,
      "ĠBir": 4995,
      "ĠGame": 4996,
      "ĠKim": 4997,
      "Ġsignifican": 4998,
      "Ġmeeting": 4999,
      "Ġtraining": 5000,
      "Ġfurther": 5001,
      "ji": 5002,
      "reater": 5003,
      "isions": 5004,
      "aled": 5005,
      "ĠSab": 5006,
      "ĠBol": 5007,
      "ĠDream": 5008,
      "ĠNa": 5009,
      "ugg": 5010,
      "1977": 5011,
      "Ġconfir": 5012,
      "Ġhappens": 5013,
      "Å¡n": 5014,
      "ĠJesus": 5015,
      "Ġromantic": 5016,
      "pre": 5017,
      "Ġdie": 5018,
      "Ġcommerc": 5019,
      "ĠChannel": 5020,
      "Ġ65": 5021,
      "Ġclosed": 5022,
      "Ġweather": 5023,
      "ĠIndones": 5024,
      "Ġeconomic": 5025,
      "Ġfigure": 5026,
      "ĠColumbia": 5027,
      "ĠBelgium": 5028,
      "Ã£o": 5029,
      "Career": 5030,
      "We": 5031,
      "uly": 5032,
      "ĠRaj": 5033,
      "una": 5034,
      "Ġunderstand": 5035,
      "Ġletters": 5036,
      "fort": 5037,
      "iot": 5038,
      "orter": 5039,
      "Ġwat": 5040,
      "Ġbul": 5041,
      "ecess": 5042,
      "Ġacting": 5043,
      "Ġbelow": 5044,
      "ĠSwiss": 5045,
      "Ġeverything": 5046,
      "rogen": 5047,
      "uese": 5048,
      "wa": 5049,
      "inem": 5050,
      "orer": 5051,
      "ĠBoth": 5052,
      "Ġlake": 5053,
      "ĠRod": 5054,
      "ĠRac": 5055,
      "ĠFederal": 5056,
      "Ġonline": 5057,
      "ocks": 5058,
      "ĠNorway": 5059,
      "aptain": 5060,
      "ription": 5061,
      "Ġrailway": 5062,
      "ĠRadio": 5063,
      "ĠGreece": 5064,
      "May": 5065,
      "alia": 5066,
      "Ġclear": 5067,
      "Ġplane": 5068,
      "Ġairport": 5069,
      "Ġhistorian": 5070,
      "olitan": 5071,
      "TA": 5072,
      "bec": 5073,
      "nic": 5074,
      "Ð¾": 5075,
      "aska": 5076,
      "ĠDown": 5077,
      "ashion": 5078,
      "ierre": 5079,
      "1972": 5080,
      "Ġnearly": 5081,
      "alymp": 5082,
      "cow": 5083,
      "met": 5084,
      "onto": 5085,
      "change": 5086,
      "Ġchief": 5087,
      "ounter": 5088,
      "ĠPhilip": 5089,
      "ĠWilson": 5090,
      "Ġlaunched": 5091,
      "62": 5092,
      "Ġpeak": 5093,
      "Ġdro": 5094,
      "Ġseem": 5095,
      "undes": 5096,
      "Ġarg": 5097,
      "Ġmuseum": 5098,
      "Ã©e": 5099,
      "ikh": 5100,
      "Ġfamilies": 5101,
      "Ġrepresented": 5102,
      "ĠSteve": 5103,
      "since": 5104,
      "vo": 5105,
      "Ġmerg": 5106,
      "ĠFound": 5107,
      "ĠUnder": 5108,
      "Ġ37": 5109,
      "incip": 5110,
      "Ġsaying": 5111,
      "Ġplanet": 5112,
      "Ġbehav": 5113,
      "ĠAfghan": 5114,
      "Ġkilomet": 5115,
      "Jan": 5116,
      "coh": 5117,
      "fall": 5118,
      "Ġbab": 5119,
      "Ġcust": 5120,
      "ĠAz": 5121,
      "omm": 5122,
      "eller": 5123,
      "ellig": 5124,
      "ĠInternet": 5125,
      "ondiss": 5126,
      "1975": 5127,
      "ĠCommittee": 5128,
      "ĠParalymp": 5129,
      "Ġcomposed": 5130,
      "Ġphysicist": 5131,
      "\").": 5132,
      "aro": 5133,
      "ĠTony": 5134,
      "ĠHistor": 5135,
      "ĠBa": 5136,
      "ĠPap": 5137,
      "ĠRap": 5138,
      "Ġones": 5139,
      "ĠWinter": 5140,
      "weet": 5141,
      "Ġremember": 5142,
      "Ġmajority": 5143,
      "ĠDesert": 5144,
      "April": 5145,
      "ii": 5146,
      "rees": 5147,
      "Ġdoll": 5148,
      "ĠLew": 5149,
      "orship": 5150,
      "ĠNetwork": 5151,
      "which": 5152,
      "ĠMicro": 5153,
      "ĠAirlines": 5154,
      "ingers": 5155,
      "ĠTimes": 5156,
      "ĠMinn": 5157,
      "Ġadapt": 5158,
      "anning": 5159,
      "Ġstudent": 5160,
      "YG": 5161,
      "Ġfund": 5162,
      "Ġpri": 5163,
      "Ġloss": 5164,
      "Ġnation": 5165,
      "Ġsongwriter": 5166,
      "Ġcarbon": 5167,
      "Ġeasily": 5168,
      "ĠNorwegian": 5169,
      "ĠJews": 5170,
      "ĠService": 5171,
      "Ġweapons": 5172,
      "ĠWalter": 5173,
      "ĠPhilippines": 5174,
      "SC": 5175,
      "ci": 5176,
      "ÅĤ": 5177,
      "Ġsal": 5178,
      "Ġnative": 5179,
      "Ġreve": 5180,
      "anded": 5181,
      "ĠOd": 5182,
      "ĠThank": 5183,
      "Ġleaving": 5184,
      "ĠMarg": 5185,
      "Ġeveryone": 5186,
      "ĠBrook": 5187,
      "Ġkinds": 5188,
      "Ġeffects": 5189,
      "Ġmixed": 5190,
      "Ġcandidate": 5191,
      "real": 5192,
      "Ġ(,": 5193,
      "Ġlog": 5194,
      "ĠLive": 5195,
      "ĠOntario": 5196,
      "sect": 5197,
      "Ġexpect": 5198,
      "ients": 5199,
      "1978": 5200,
      "Ġattacks": 5201,
      "ĠDirector": 5202,
      "German": 5203,
      "VD": 5204,
      "ares": 5205,
      "gress": 5206,
      "nes": 5207,
      "Ġwrong": 5208,
      "Ġpieces": 5209,
      "ĠTai": 5210,
      "Ġhop": 5211,
      "Ġthreat": 5212,
      "Ġcomput": 5213,
      "ĠMPs": 5214,
      "Ġpressure": 5215,
      "mun": 5216,
      "oz": 5217,
      "Ġbase": 5218,
      "Ġbrain": 5219,
      "ĠLi": 5220,
      "othes": 5221,
      "Ġcomplete": 5222,
      "Ġ68": 5223,
      "ika": 5224,
      "ropolitan": 5225,
      "flict": 5226,
      "Ġconditions": 5227,
      "bai": 5228,
      "ĠHug": 5229,
      "ĠHYG": 5230,
      "Ġreach": 5231,
      "soft": 5232,
      "Ġrate": 5233,
      "icket": 5234,
      "ĠArts": 5235,
      "ternal": 5236,
      "1973": 5237,
      "ĠProd": 5238,
      "fecture": 5239,
      "Ġyounger": 5240,
      "Ġsquare": 5241,
      "Ġstreng": 5242,
      "Ġhouses": 5243,
      ".âĢĿ": 5244,
      "Con": 5245,
      "Sus": 5246,
      "long": 5247,
      "uy": 5248,
      "Ġawards": 5249,
      "Ġbrown": 5250,
      "ĠSom": 5251,
      "Ġ1914": 5252,
      "ĠEs": 5253,
      "ĠKhan": 5254,
      "aver": 5255,
      "Ġ97": 5256,
      "1976": 5257,
      "Ġrecording": 5258,
      "ĠSupreme": 5259,
      "ĠChampionships": 5260,
      "Ġtrying": 5261,
      "'.": 5262,
      "Many": 5263,
      "bi": 5264,
      "Ġfix": 5265,
      "ĠTem": 5266,
      "Ġaltern": 5267,
      "ĠWeb": 5268,
      "ĠJon": 5269,
      "Ġchannel": 5270,
      "astic": 5271,
      "Ġdecl": 5272,
      "Ġracing": 5273,
      "uals": 5274,
      "Ġfle": 5275,
      "ĠLast": 5276,
      "Ġbeat": 5277,
      "ĠStory": 5278,
      "Ġregions": 5279,
      "Ġlegisl": 5280,
      "ĠDonald": 5281,
      "Ġarrondiss": 5282,
      "Ġmathematician": 5283,
      "Ġdom": 5284,
      "Ġhospital": 5285,
      "ĠHy": 5286,
      "ĠPres": 5287,
      "Ġgiving": 5288,
      "ĠRem": 5289,
      "ĠRoss": 5290,
      "Ġ86": 5291,
      "Ġworkers": 5292,
      "Ġcontrib": 5293,
      "Ġacid": 5294,
      "othing": 5295,
      "ĠĠĠĠĠĠĠĠ": 5296,
      "Ġresponsible": 5297,
      "Aust": 5298,
      "more": 5299,
      "pite": 5300,
      "1974": 5301,
      "Ġbelief": 5302,
      "ledge": 5303,
      "ophy": 5304,
      "Ġphysical": 5305,
      "Ġmountains": 5306,
      "Ġfeatured": 5307,
      "Ġadministr": 5308,
      "rian": 5309,
      "water": 5310,
      "Ġwall": 5311,
      "ĠLight": 5312,
      "ĠNag": 5313,
      "ĠUl": 5314,
      "ogy": 5315,
      "Ġteen": 5316,
      "Ġextra": 5317,
      "Ġtransport": 5318,
      "rect": 5319,
      "Ġbrand": 5320,
      "Ġcred": 5321,
      "ĠTa": 5322,
      "ĠTy": 5323,
      "Ġden": 5324,
      "Ġdies": 5325,
      "ĠHi": 5326,
      "ĠLie": 5327,
      "osing": 5328,
      "Ġveh": 5329,
      "order": 5330,
      "Ġ70": 5331,
      "Ġbroke": 5332,
      "Ġcras": 5333,
      "Ġsimple": 5334,
      "ĠPhiladelphia": 5335,
      "Ġcultural": 5336,
      "Ġfunction": 5337,
      "Ġcompleted": 5338,
      "ĠBangl": 5339,
      "El": 5340,
      "bach": 5341,
      "uv": 5342,
      "arp": 5343,
      "arrow": 5344,
      "Ġmention": 5345,
      "Ġ1912": 5346,
      "ĠDor": 5347,
      "ĠOt": 5348,
      "ĠStone": 5349,
      "Ġconcept": 5350,
      "outheast": 5351,
      "speople": 5352,
      "Ġlooked": 5353,
      "ĠTurkish": 5354,
      "100": 5355,
      "esota": 5356,
      "ĠFre": 5357,
      "ĠFore": 5358,
      "aped": 5359,
      "hedral": 5360,
      "Ġcrew": 5361,
      "ippi": 5362,
      "Ġstarred": 5363,
      "Ġpainting": 5364,
      "ĠStephen": 5365,
      "Ġelements": 5366,
      "EF": 5367,
      "ria": 5368,
      "Ġess": 5369,
      "Ġsail": 5370,
      "Ġtom": 5371,
      "Ġ1917": 5372,
      "irty": 5373,
      "ims": 5374,
      "ĠGreg": 5375,
      "ĠEven": 5376,
      "Ġroy": 5377,
      "Ġproduce": 5378,
      "Ġscientist": 5379,
      "Ġinvestig": 5380,
      "Ġlabel": 5381,
      "Serie": 5382,
      "//": 5383,
      "Ġtaught": 5384,
      "oring": 5385,
      "Ġfell": 5386,
      "ĠTs": 5387,
      "Ġnick": 5388,
      "ĠOper": 5389,
      "Ġnothing": 5390,
      "Ġ76": 5391,
      "Ġmechan": 5392,
      "Ġlands": 5393,
      "uki": 5394,
      "Ġstatus": 5395,
      "Ġproducts": 5396,
      "ĠWWE": 5397,
      "Ġbeautiful": 5398,
      "August": 5399,
      "You": 5400,
      "lov": 5401,
      "ando": 5402,
      "iang": 5403,
      "Ġblock": 5404,
      "ĠProt": 5405,
      "Ġeasy": 5406,
      "zerbai": 5407,
      "Ġappears": 5408,
      "ĠTaylor": 5409,
      "Em": 5410,
      "LA": 5411,
      "hire": 5412,
      "pro": 5413,
      "Ġwants": 5414,
      "Ġelev": 5415,
      "ĠEag": 5416,
      "osen": 5417,
      "ĠHeart": 5418,
      "Ġshr": 5419,
      "Ġexec": 5420,
      "Ġweight": 5421,
      "ĠWho": 5422,
      "ĠHoly": 5423,
      "ĠMrs": 5424,
      "ĠMississ": 5425,
      "ĠIslamic": 5426,
      "Ab": 5427,
      "pson": 5428,
      "vest": 5429,
      "Ġpal": 5430,
      "ĠPublic": 5431,
      "ĠDeb": 5432,
      "ĠNHL": 5433,
      "umber": 5434,
      "ĠChap": 5435,
      "ĠCentury": 5436,
      "engers": 5437,
      "ĠBroad": 5438,
      "ĠTurkey": 5439,
      "Ġexperience": 5440,
      "Ġprimary": 5441,
      "ĠFreder": 5442,
      "ĠMoscow": 5443,
      "Ġearned": 5444,
      "://": 5445,
      "bgcolor": 5446,
      "eer": 5447,
      "itage": 5448,
      "Ġcorn": 5449,
      "usion": 5450,
      "lyn": 5451,
      "Ġstore": 5452,
      "ĠMarie": 5453,
      "Ġrare": 5454,
      "Ġfilms": 5455,
      "Ġships": 5456,
      "Ġnuclear": 5457,
      "ennessee": 5458,
      "chestra": 5459,
      "Ġ118": 5460,
      "ĠSav": 5461,
      "Ġmole": 5462,
      "Ġtwice": 5463,
      "Ġremains": 5464,
      "Ġentered": 5465,
      "intendo": 5466,
      "ĠMichigan": 5467,
      "ĠDouglas": 5468,
      "orry": 5469,
      "enz": 5470,
      "Ġfolk": 5471,
      "icide": 5472,
      "ĠMas": 5473,
      "ĠIV": 5474,
      "ĠDid": 5475,
      "Ġforest": 5476,
      "ĠWork": 5477,
      "osis": 5478,
      "Ġplat": 5479,
      "Ġ45": 5480,
      "Ġexact": 5481,
      "iversal": 5482,
      "Ġmatter": 5483,
      "yrics": 5484,
      "Ġkingdom": 5485,
      "Ġwinter": 5486,
      "ĠViÅ¡n": 5487,
      "ĠViÅ¡njan": 5488,
      ");": 5489,
      "rary": 5490,
      "Ġfair": 5491,
      "ĠCab": 5492,
      "ĠId": 5493,
      "ĠAsh": 5494,
      "aux": 5495,
      "Ġremoved": 5496,
      "Ġdiscuss": 5497,
      "Ġvalue": 5498,
      "ĠArgentine": 5499,
      "Ġjudge": 5500,
      "Ġwidely": 5501,
      "Ð¸": 5502,
      "isk": 5503,
      "Ġbridge": 5504,
      "Ġ112": 5505,
      "thony": 5506,
      "ĠOizumi": 5507,
      "antasy": 5508,
      "Ġshape": 5509,
      "Ġ55": 5510,
      "Ġ81": 5511,
      "Ġflood": 5512,
      "Ġnearby": 5513,
      "Ġcompeted": 5514,
      "Ġreferred": 5515,
      "Ġwrestler": 5516,
      "Ġpractice": 5517,
      "Ġstructure": 5518,
      "Ġpack": 5519,
      "igen": 5520,
      "ĠMid": 5521,
      "Ġ87": 5522,
      "ussian": 5523,
      "ĠScience": 5524,
      "ĠBeat": 5525,
      "Ġhelps": 5526,
      "Ġorganiz": 5527,
      "Austral": 5528,
      "Ġtar": 5529,
      "Ġachie": 5530,
      "reement": 5531,
      "ĠHuman": 5532,
      "ĠNik": 5533,
      "ĠGab": 5534,
      "Ġwhom": 5535,
      "Ġcontest": 5536,
      "Ġregard": 5537,
      "Ġsucceed": 5538,
      "century": 5539,
      "||||||||||": 5540,
      "ufact": 5541,
      "ĠPortugal": 5542,
      "bed": 5543,
      "lad": 5544,
      "ties": 5545,
      "Ġ+": 5546,
      "Ġsleep": 5547,
      "Ġmaster": 5548,
      "ĠTennessee": 5549,
      "Ġrich": 5550,
      "Ġ95": 5551,
      "arks": 5552,
      "Ġworldwide": 5553,
      "ervative": 5554,
      "Ġdivor": 5555,
      "Ġrestaur": 5556,
      "Ġconcert": 5557,
      "Ġmotor": 5558,
      "Ġhonor": 5559,
      "ni": 5560,
      "sa": 5561,
      "Ġbron": 5562,
      "Ġpiano": 5563,
      "ĠGro": 5564,
      "ĠEconom": 5565,
      "Ġshop": 5566,
      "amples": 5567,
      "ĠColomb": 5568,
      "Ġtradition": 5569,
      "Ġgenus": 5570,
      "eech": 5571,
      "Ġetc": 5572,
      "ĠPortuguese": 5573,
      "Ġreviews": 5574,
      "ĠIraq": 5575,
      "Ġspoken": 5576,
      "ef": 5577,
      "wo": 5578,
      "arily": 5579,
      "Ġcars": 5580,
      "Ġmission": 5581,
      "ĠMoh": 5582,
      "ĠBranch": 5583,
      "Ġnort": 5584,
      "Ġ34": 5585,
      "Ġcomplex": 5586,
      "Ġdoor": 5587,
      "anced": 5588,
      "Ġends": 5589,
      "Ġspecific": 5590,
      "Ġconsist": 5591,
      "1969": 5592,
      "Ġattacked": 5593,
      "Ġeggs": 5594,
      "bo": 5595,
      "based": 5596,
      "Ġbranch": 5597,
      "itan": 5598,
      "Ġ120": 5599,
      "Ġpun": 5600,
      "ĠCaptain": 5601,
      "ĠHan": 5602,
      "Ġlung": 5603,
      "ĠFil": 5604,
      "ĠNiger": 5605,
      "ĠEvery": 5606,
      "iance": 5607,
      "ĠKan": 5608,
      "arters": 5609,
      "Ġmoment": 5610,
      "Football": 5611,
      "Ðµ": 5612,
      "Ġpaid": 5613,
      "Ġparliament": 5614,
      "oca": 5615,
      "ĠKarl": 5616,
      "ĠKelly": 5617,
      "ĠHead": 5618,
      "ĠVice": 5619,
      "Ġserious": 5620,
      "aily": 5621,
      "William": 5622,
      "ĠMississippi": 5623,
      "oen": 5624,
      "Ġwait": 5625,
      "ĠSyd": 5626,
      "Ġdry": 5627,
      "Ġhour": 5628,
      "ĠCard": 5629,
      "ĠHome": 5630,
      "ĠEarl": 5631,
      "istance": 5632,
      "abama": 5633,
      "Ġconqu": 5634,
      "ĠAli": 5635,
      "athan": 5636,
      "Ġallows": 5637,
      "Ġgoddess": 5638,
      "Ġcouple": 5639,
      "Ġfrequ": 5640,
      "ĠUEFA": 5641,
      "Ġcommercial": 5642,
      "inals": 5643,
      "enger": 5644,
      "asp": 5645,
      "stan": 5646,
      "imately": 5647,
      "istics": 5648,
      "Ġhero": 5649,
      "Ġpersonality": 5650,
      "Ġdistance": 5651,
      "Ġremained": 5652,
      "Ġactivities": 5653,
      "ĠHungarian": 5654,
      "EN": 5655,
      "Up": 5656,
      "rÃ©": 5657,
      "Ġtail": 5658,
      "Ġfoss": 5659,
      "ĠSiding": 5660,
      "ĠCD": 5661,
      "ĠBon": 5662,
      "ety": 5663,
      "uri": 5664,
      "ĠNep": 5665,
      "ĠOffic": 5666,
      "Ġunit": 5667,
      "ĠOnly": 5668,
      "Ġcaptured": 5669,
      "Ġinfluence": 5670,
      "Ġveget": 5671,
      ",âĢĿ": 5672,
      "First": 5673,
      "body": 5674,
      "ging": 5675,
      "vi": 5676,
      "Ġsides": 5677,
      "Ġfir": 5678,
      "ĠCra": 5679,
      "Ġ1916": 5680,
      "ĠFle": 5681,
      "ava": 5682,
      "They": 5683,
      "Ġestim": 5684,
      "Ã¶r": 5685,
      "ĠHolly": 5686,
      "IT": 5687,
      "dy": 5688,
      "wer": 5689,
      "Ġ;": 5690,
      "ĠDun": 5691,
      "ĠForm": 5692,
      "Ġstra": 5693,
      "Ġexhib": 5694,
      "ĠBrad": 5695,
      "Ġcopies": 5696,
      "ĠErn": 5697,
      "ĠDenmark": 5698,
      "Ġmeasure": 5699,
      "Most": 5700,
      "Ġbacter": 5701,
      "ĠAff": 5702,
      "ĠMoon": 5703,
      "idae": 5704,
      "Ġancest": 5705,
      "ache": 5706,
      "Ġappl": 5707,
      "1971": 5708,
      "Ġmeters": 5709,
      "Ġversions": 5710,
      "Ġappearance": 5711,
      "Ġhistorical": 5712,
      "ĠFrancis": 5713,
      "ĠOffice": 5714,
      "500": 5715,
      "haps": 5716,
      "Ġsend": 5717,
      "itter": 5718,
      "ĠBoard": 5719,
      "Ġvac": 5720,
      "Ġdecision": 5721,
      "Ġneeds": 5722,
      "Ġprogramming": 5723,
      "Ġopening": 5724,
      "Ġdefin": 5725,
      "Ġscientific": 5726,
      "urban": 5727,
      "Ġissues": 5728,
      "Ġindividual": 5729,
      "fit": 5730,
      "ye": 5731,
      "esh": 5732,
      "ĠSher": 5733,
      "ĠMaster": 5734,
      "ĠHong": 5735,
      "ĠNintendo": 5736,
      "oven": 5737,
      "ista": 5738,
      "ocol": 5739,
      "Ġchosen": 5740,
      "Ġsevent": 5741,
      "ictional": 5742,
      "ĠTrump": 5743,
      "ĠPatrick": 5744,
      "Ġevidence": 5745,
      "ĠProfessor": 5746,
      "Ġsignificant": 5747,
      "Or": 5748,
      "chen": 5749,
      "Ġsaf": 5750,
      "ĠBah": 5751,
      "irt": 5752,
      "imum": 5753,
      "oshi": 5754,
      "Ġrecords": 5755,
      "ĠPhys": 5756,
      "Ġmonarch": 5757,
      "ĠCorporation": 5758,
      "Ġdouble": 5759,
      "Ġpilot": 5760,
      "ĠHam": 5761,
      "ĠHay": 5762,
      "ĠPost": 5763,
      "ĠPower": 5764,
      "ĠRang": 5765,
      "ĠNative": 5766,
      "Ġsection": 5767,
      "ĠAlabama": 5768,
      "Ġtwenty": 5769,
      "Ġcontain": 5770,
      "ĠSerb": 5771,
      "ĠCoast": 5772,
      "Ġreading": 5773,
      "ĠRailway": 5774,
      "Ġestablishments": 5775,
      "utenant": 5776,
      "cohol": 5777,
      "Japan": 5778,
      "ĠAst": 5779,
      "ĠAzerbai": 5780,
      "Ġrivers": 5781,
      "velopment": 5782,
      "Ġlegs": 5783,
      "Ġdefeat": 5784,
      "Ġautom": 5785,
      "ĠLawrence": 5786,
      "ĠModern": 5787,
      "Ġassociated": 5788,
      "Ġcerem": 5789,
      "ho": 5790,
      "Ġwarm": 5791,
      "ening": 5792,
      "Ġcool": 5793,
      "Ġinsect": 5794,
      "olis": 5795,
      "uble": 5796,
      "onds": 5797,
      "ĠAncient": 5798,
      "Ġenter": 5799,
      "Ġsolo": 5800,
      "Ġhands": 5801,
      "Ġpositive": 5802,
      "Ġtechnology": 5803,
      "bourne": 5804,
      "Ġclean": 5805,
      "ĠMicrosoft": 5806,
      "down": 5807,
      "ygen": 5808,
      "Ġaired": 5809,
      "erved": 5810,
      "alle": 5811,
      "Ġpian": 5812,
      "Ġdynasty": 5813,
      "ĠMinist": 5814,
      "ĠMAR": 5815,
      "ĠHart": 5816,
      "ĠHans": 5817,
      "ante": 5818,
      "Ġconflict": 5819,
      "Ġability": 5820,
      "izes": 5821,
      "Ġrob": 5822,
      "ibb": 5823,
      "anny": 5824,
      "Ġelections": 5825,
      "Ġfinally": 5826,
      "ĠOxford": 5827,
      "ER": 5828,
      "die": 5829,
      "ui": 5830,
      "ĠHo": 5831,
      "ĠPremier": 5832,
      "Ġalph": 5833,
      "ĠDam": 5834,
      "ĠFree": 5835,
      "coln": 5836,
      "Ġcomic": 5837,
      "orney": 5838,
      "ĠArn": 5839,
      "Ġpolitics": 5840,
      "Ġkills": 5841,
      "ĠMedal": 5842,
      "Ġvotes": 5843,
      "Ġgraduated": 5844,
      "Ġarrested": 5845,
      "ĠStanley": 5846,
      "Ġharm": 5847,
      "Ġreign": 5848,
      "sequ": 5849,
      "ibility": 5850,
      "Ġfloor": 5851,
      "Ġcenturies": 5852,
      "Ġpret": 5853,
      "ĠOrgan": 5854,
      "Ã¼r": 5855,
      "Ġcheck": 5856,
      "Ġrapper": 5857,
      "ĠTaiwan": 5858,
      "AF": 5859,
      "Ġera": 5860,
      "lets": 5861,
      "iginal": 5862,
      "omic": 5863,
      "ĠHave": 5864,
      "ĠBand": 5865,
      "ĠFair": 5866,
      "ĠOpen": 5867,
      "ĠKir": 5868,
      "ources": 5869,
      "ĠMarsh": 5870,
      "Ġgreatest": 5871,
      "ĠLouisiana": 5872,
      "Ġinstrument": 5873,
      "Ġcompletely": 5874,
      "ĠAfghanistan": 5875,
      "How": 5876,
      "come": 5877,
      "died": 5878,
      "room": 5879,
      "ĠCop": 5880,
      "Ġnob": 5881,
      "ĠFinn": 5882,
      "Ġshall": 5883,
      "Ġpercent": 5884,
      "Ġflow": 5885,
      "anchester": 5886,
      "Ġowner": 5887,
      "writers": 5888,
      "regon": 5889,
      "ĠToronto": 5890,
      "Ġconnected": 5891,
      "ĠBuddh": 5892,
      "300": 5893,
      "hard": 5894,
      "voice": 5895,
      "inental": 5896,
      "ĠRoll": 5897,
      "Ġkid": 5898,
      "rav": 5899,
      "Ġanal": 5900,
      "Ġhear": 5901,
      "ancial": 5902,
      "ĠColor": 5903,
      "ĠMalays": 5904,
      "Ġtreatment": 5905,
      "ategory": 5906,
      "ĠKennedy": 5907,
      "ĠMinnesota": 5908,
      "lah": 5909,
      "Ġsearch": 5910,
      "Ġmouth": 5911,
      "ĠColl": 5912,
      "ĠMars": 5913,
      "ĠConstitution": 5914,
      "ĠDeputy": 5915,
      "Ġfruit": 5916,
      "French": 5917,
      "book": 5918,
      "gers": 5919,
      "Ġtennis": 5920,
      "isation": 5921,
      "aturing": 5922,
      "ĠHun": 5923,
      "ĠBull": 5924,
      "ĠDick": 5925,
      "ĠWolf": 5926,
      "ully": 5927,
      "Ġ53": 5928,
      "ĠAlfred": 5929,
      "ĠDeath": 5930,
      "ĠJosÃ©": 5931,
      "Ġincrease": 5932,
      "Ġvictory": 5933,
      "Ġearthqu": 5934,
      "ĠUkraine": 5935,
      "Ġfavor": 5936,
      "ĠSydney": 5937,
      "ĠAle": 5938,
      "ĠMur": 5939,
      "ĠMun": 5940,
      "Ġ1915": 5941,
      "Ġlink": 5942,
      "stone": 5943,
      "iva": 5944,
      "Ġforward": 5945,
      "agon": 5946,
      "Ġcomment": 5947,
      "Ġrat": 5948,
      "elsh": 5949,
      "Ġproducers": 5950,
      "Ġdeliver": 5951,
      "Ġstayed": 5952,
      "Ġathlete": 5953,
      "Ġconfirmed": 5954,
      "undesliga": 5955,
      "Ant": 5956,
      "Jew": 5957,
      "cont": 5958,
      "uins": 5959,
      "Ġ1000": 5960,
      "ĠEth": 5961,
      "Ġ32": 5962,
      "ipe": 5963,
      "Ġ96": 5964,
      "Ġunderg": 5965,
      "ĠAdam": 5966,
      "Ġglass": 5967,
      "Ġterror": 5968,
      "Ġmemory": 5969,
      "Ġroyal": 5970,
      "found": 5971,
      "iop": 5972,
      "law": 5973,
      "orge": 5974,
      "oles": 5975,
      "ĠDNA": 5976,
      "ĠFord": 5977,
      "Ġconstruction": 5978,
      "Ġrecent": 5979,
      "Ġmanufact": 5980,
      "Ġtransfer": 5981,
      "evin": 5982,
      "Ġliterature": 5983,
      "ĠGrammy": 5984,
      "Ġnickn": 5985,
      "eral": 5986,
      "Ġpup": 5987,
      "Ġhuge": 5988,
      "ĠMain": 5989,
      "Ġ1913": 5990,
      "ĠBerg": 5991,
      "Ġready": 5992,
      "oves": 5993,
      "ĠKle": 5994,
      "ÃŃa": 5995,
      "ÃŃo": 5996,
      "Ġbegin": 5997,
      "Ġfailed": 5998,
      "ĠSpecial": 5999,
      "His": 6000,
      "where": 6001,
      "heastern": 6002,
      "Ġbright": 6003,
      "Ġbodies": 6004,
      "Ġcry": 6005,
      "Ġfestival": 6006,
      "Ġpull": 6007,
      "Ġmer": 6008,
      "ĠTar": 6009,
      "olas": 6010,
      "ĠMand": 6011,
      "ĠRel": 6012,
      "ĠRoc": 6013,
      "2021": 6014,
      "ĠArm": 6015,
      "Ġ130": 6016,
      "ysis": 6017,
      "Ġcrim": 6018,
      "struct": 6019,
      "former": 6020,
      "ĠDoctor": 6021,
      "Ġeconomy": 6022,
      "Ġholds": 6023,
      "Ġprisoners": 6024,
      "Ġconcern": 6025,
      "Ġneighbor": 6026,
      "Sussex": 6027,
      "posed": 6028,
      "uay": 6029,
      "Ġver": 6030,
      "Ġpage": 6031,
      "Ġpowers": 6032,
      "Ġdin": 6033,
      "iday": 6034,
      "Ġ1910": 6035,
      "ĠBishop": 6036,
      "ĠPle": 6037,
      "Ġstadium": 6038,
      "Ġ104": 6039,
      "ĠShin": 6040,
      "Ġdrive": 6041,
      "Ġconsists": 6042,
      "Ġcarried": 6043,
      "1960": 6044,
      "ĠAbd": 6045,
      "Ġheadqu": 6046,
      "ĠIranian": 6047,
      "ĠHindu": 6048,
      "Ġsplit": 6049,
      "Ġinhabit": 6050,
      "Ġbronze": 6051,
      "Nov": 6052,
      "fish": 6053,
      "iat": 6054,
      "rell": 6055,
      "ĠDog": 6056,
      "ĠDomin": 6057,
      "ĠDanish": 6058,
      "ĠRa": 6059,
      "ĠGil": 6060,
      "ĠJenn": 6061,
      "ĠOregon": 6062,
      "ĠKer": 6063,
      "ĠHealth": 6064,
      "izing": 6065,
      "leveland": 6066,
      "Ġdoesn": 6067,
      "ĠRegion": 6068,
      "Ġinterested": 6069,
      "Ġobjects": 6070,
      "Ġdrugs": 6071,
      "Ġacademic": 6072,
      "rison": 6073,
      "Ġâ": 6074,
      "ĠTag": 6075,
      "Ġ1911": 6076,
      "ĠBush": 6077,
      "Ġthick": 6078,
      "ĠKy": 6079,
      "apers": 6080,
      "Ġspirit": 6081,
      "ultural": 6082,
      "Ġresident": 6083,
      "1964": 6084,
      "enez": 6085,
      "ĠQueens": 6086,
      "porary": 6087,
      "Ġmunicipal": 6088,
      "Dec": 6089,
      "aith": 6090,
      "Ġx": 6091,
      "ĠÄ": 6092,
      "Ġsac": 6093,
      "aron": 6094,
      "ĠHills": 6095,
      "ĠRub": 6096,
      "ĠRose": 6097,
      "Ġstream": 6098,
      "ĠKaz": 6099,
      "Ġplanned": 6100,
      "ordon": 6101,
      "Ġspeech": 6102,
      "Ġoverall": 6103,
      "Ġcommune": 6104,
      "insula": 6105,
      "ĠBruce": 6106,
      "ĠLincoln": 6107,
      "ĠSquare": 6108,
      "ĠFederation": 6109,
      "January": 6110,
      "Ġdeclared": 6111,
      "oir": 6112,
      "oration": 6113,
      "ĠSon": 6114,
      "ĠTan": 6115,
      "Ġ(),": 6116,
      "ĠHom": 6117,
      "ĠHard": 6118,
      "ĠBalt": 6119,
      "ĠLabor": 6120,
      "ĠThanks": 6121,
      "ordan": 6122,
      "Ġjump": 6123,
      "ĠAlan": 6124,
      "Ġparties": 6125,
      "Ġenemy": 6126,
      "Ġimmedi": 6127,
      "1968": 6128,
      "||||||||||||||||": 6129,
      "ĠIsraeli": 6130,
      "ĠAdditional": 6131,
      "Ex": 6132,
      "]]": 6133,
      "oa": 6134,
      "Ġille": 6135,
      "Ġpicture": 6136,
      "ĠSS": 6137,
      "roll": 6138,
      "Ġdial": 6139,
      "ĠCE": 6140,
      "ĠCam": 6141,
      "iled": 6142,
      "usc": 6143,
      "ĠBros": 6144,
      "Ġfort": 6145,
      "ĠWhere": 6146,
      "ĠWalt": 6147,
      "anted": 6148,
      "ugby": 6149,
      "Ġknew": 6150,
      "cles": 6151,
      "Ġagreed": 6152,
      "ĠEducation": 6153,
      "ĠCarter": 6154,
      "amilton": 6155,
      "Sportspeople": 6156,
      "box": 6157,
      "load": 6158,
      "inated": 6159,
      "ĠTurn": 6160,
      "Ġhun": 6161,
      "Ġalone": 6162,
      "ircle": 6163,
      "Ġliked": 6164,
      "Ġarms": 6165,
      "rows": 6166,
      "Ġagree": 6167,
      "Ġ107": 6168,
      "Ġdirectors": 6169,
      "ancell": 6170,
      "Ġmayor": 6171,
      "Ġconductor": 6172,
      "Ġsequel": 6173,
      "ĠLibrary": 6174,
      "Ġarrondissement": 6175,
      "Rep": 6176,
      "from": 6177,
      "ĠLor": 6178,
      "iab": 6179,
      "Ġplans": 6180,
      "Ġpolicy": 6181,
      "Ġattended": 6182,
      "Ġcrash": 6183,
      "Ġgirls": 6184,
      "ĠEgyptian": 6185,
      "Ġissue": 6186,
      "Ġhorror": 6187,
      "ĠCroat": 6188,
      "Ġadopted": 6189,
      "lahoma": 6190,
      "March": 6191,
      "bishop": 6192,
      "oons": 6193,
      "Ġopt": 6194,
      "ĠTal": 6195,
      "ĠPot": 6196,
      "ĠEst": 6197,
      "Ġansw": 6198,
      "Ġ88": 6199,
      "onsin": 6200,
      "Ġsinging": 6201,
      "ĠDead": 6202,
      "Ġpassengers": 6203,
      "Ġeye": 6204,
      "Ġlimited": 6205,
      "Ġquestion": 6206,
      "rish": 6207,
      "zen": 6208,
      "Ġbatt": 6209,
      "otte": 6210,
      "ĠRet": 6211,
      "ĠNAS": 6212,
      "ĠJay": 6213,
      "Ġstreet": 6214,
      "ĠVin": 6215,
      "ucks": 6216,
      "Ġ78": 6217,
      "Ġ69": 6218,
      "Ġcontact": 6219,
      "Ġtrains": 6220,
      "Ġprec": 6221,
      "ĠPalest": 6222,
      "Ġlongest": 6223,
      "Ġentertain": 6224,
      "ĠCentre": 6225,
      "Ġ1908": 6226,
      "Ġfrogs": 6227,
      "Ġtrial": 6228,
      "Ġdevice": 6229,
      "Cast": 6230,
      "September": 6231,
      "cu": 6232,
      "ãĥ": 6233,
      "onent": 6234,
      "Ġbene": 6235,
      "Ġmoon": 6236,
      "Ġhope": 6237,
      "ession": 6238,
      "Ġ73": 6239,
      "Ġliqu": 6240,
      "Ġmythology": 6241,
      "Ġplatform": 6242,
      "IS": 6243,
      "ees": 6244,
      "Ġfashion": 6245,
      "Ġfictional": 6246,
      "ĠLiga": 6247,
      "chi": 6248,
      "ĠDer": 6249,
      "ĠDVD": 6250,
      "ivity": 6251,
      "uther": 6252,
      "Ġevolution": 6253,
      "Ġelement": 6254,
      "Ġstone": 6255,
      "ensity": 6256,
      "ĠAnthony": 6257,
      "isconsin": 6258,
      "Ġprovide": 6259,
      "ĠResearch": 6260,
      "Ġnormally": 6261,
      "Ġburied": 6262,
      "elligence": 6263,
      "Å«": 6264,
      "Ġfresh": 6265,
      "ĠSu": 6266,
      "Ġmamm": 6267,
      "Ġreasons": 6268,
      "elli": 6269,
      "Ġteach": 6270,
      "Ġlibr": 6271,
      "perial": 6272,
      "Ġrecently": 6273,
      "Ġlots": 6274,
      "Ġsixth": 6275,
      "Ġresults": 6276,
      "Ġequal": 6277,
      "Ġthousands": 6278,
      "Ġcomputers": 6279,
      "ĠFrederick": 6280,
      "\"),": 6281,
      "Ne": 6282,
      "mir": 6283,
      "wen": 6284,
      "ania": 6285,
      "ĠSax": 6286,
      "ĠBible": 6287,
      "Ġcomplications": 6288,
      "Ġpoll": 6289,
      "Ġ164": 6290,
      "ĠZh": 6291,
      "Ġflu": 6292,
      "ĠBrian": 6293,
      "Ġcreation": 6294,
      "Ġbrothers": 6295,
      "Ġdeterm": 6296,
      "ĠArgentina": 6297,
      "Ġordered": 6298,
      "ĠLewis": 6299,
      "Ġalphab": 6300,
      "IA": 6301,
      "MA": 6302,
      "father": 6303,
      "western": 6304,
      "Ġwarn": 6305,
      "ĠPun": 6306,
      "ĠDom": 6307,
      "ĠNat": 6308,
      "Ġask": 6309,
      "tha": 6310,
      "Ġshare": 6311,
      "ogen": 6312,
      "under": 6313,
      "Ġimage": 6314,
      "Ġprice": 6315,
      "ologists": 6316,
      "isms": 6317,
      "Ġextrem": 6318,
      "ĠÃī": 6319,
      "Ġkeyboard": 6320,
      "Ġdancer": 6321,
      "Ġdangerous": 6322,
      "etroit": 6323,
      "Jewish": 6324,
      "''": 6325,
      "July": 6326,
      "October": 6327,
      "set": 6328,
      "Ġiron": 6329,
      "inent": 6330,
      "Ġsick": 6331,
      "Ġbed": 6332,
      "Ġbow": 6333,
      "alo": 6334,
      "ications": 6335,
      "oli": 6336,
      "ĠDC": 6337,
      "owa": 6338,
      "Ġchall": 6339,
      "endar": 6340,
      "Ġdisp": 6341,
      "1967": 6342,
      "Ġserving": 6343,
      "Ġtarget": 6344,
      "Ġinhabitants": 6345,
      "Sup": 6346,
      "gr": 6347,
      "ners": 6348,
      "Ġcab": 6349,
      "Ġcovers": 6350,
      "Ġfine": 6351,
      "roc": 6352,
      "Ġlabor": 6353,
      "allas": 6354,
      "olden": 6355,
      "Ġscript": 6356,
      "Ġprime": 6357,
      "iko": 6358,
      "Ġending": 6359,
      "ĠSeason": 6360,
      "Ġlocation": 6361,
      "ception": 6362,
      "Ġnorthwest": 6363,
      "Ġdistricts": 6364,
      "ĠMichel": 6365,
      "ĠJimmy": 6366,
      "Ġrecognized": 6367,
      "stitutional": 6368,
      "rizona": 6369,
      "ĠParalympics": 6370,
      "If": 6371,
      "RS": 6372,
      "inces": 6373,
      "ĠMill": 6374,
      "Ġalcohol": 6375,
      "ads": 6376,
      "ĠDark": 6377,
      "ĠWisconsin": 6378,
      "Ġ54": 6379,
      "iba": 6380,
      "ptoms": 6381,
      "Ġpopul": 6382,
      "Ġdirection": 6383,
      "Ġsubst": 6384,
      "Christ": 6385,
      "Ġ1901": 6386,
      "Ġlisted": 6387,
      "Ġglob": 6388,
      "Ġprotest": 6389,
      "cules": 6390,
      "Ġoxygen": 6391,
      "mission": 6392,
      "ski": 6393,
      "Ġcm": 6394,
      "ĠPitt": 6395,
      "Ġlic": 6396,
      "ĠWalk": 6397,
      "ĠWelsh": 6398,
      "ĠGi": 6399,
      "ĠGri": 6400,
      "ĠEsp": 6401,
      "ĠKam": 6402,
      "Ġ300": 6403,
      "Ġroll": 6404,
      "osphere": 6405,
      "ĠTerrit": 6406,
      "ĠPeace": 6407,
      "Ġearliest": 6408,
      "Ġinvented": 6409,
      "ĠHonor": 6410,
      "James": 6411,
      "Ø§": 6412,
      "Ġmurd": 6413,
      "Ġda": 6414,
      "ĠCost": 6415,
      "Ġnice": 6416,
      "ĠDynasty": 6417,
      "urches": 6418,
      "Ġspin": 6419,
      "stitu": 6420,
      "Char": 6421,
      "Ġranked": 6422,
      "hammad": 6423,
      "Ġexpensive": 6424,
      "ĠBelgian": 6425,
      "Ġgrowth": 6426,
      "Ġethnic": 6427,
      "ĠFoundation": 6428,
      "onse": 6429,
      "Ġsales": 6430,
      "Ġmill": 6431,
      "ĠPur": 6432,
      "ĠFriend": 6433,
      "Ġforests": 6434,
      "ĠEric": 6435,
      "osa": 6436,
      "aph": 6437,
      "ifer": 6438,
      "Ġupper": 6439,
      "Ġcoal": 6440,
      "ĠGuard": 6441,
      "Ġdesigner": 6442,
      "ĠCambridge": 6443,
      "Bob": 6444,
      "rh": 6445,
      "Ġsir": 6446,
      "Ġsense": 6447,
      "eding": 6448,
      "Ġcouncil": 6449,
      "ĠHit": 6450,
      "cha": 6451,
      "Ġgal": 6452,
      "emic": 6453,
      "ĠDem": 6454,
      "ĠDave": 6455,
      "Ġeff": 6456,
      "ĠStorm": 6457,
      "ĠVII": 6458,
      "Ġ47": 6459,
      "ooth": 6460,
      "owski": 6461,
      "Ġbasic": 6462,
      "ĠBrother": 6463,
      "rainian": 6464,
      "Ġcritics": 6465,
      "Ġlevels": 6466,
      "Ġnovelist": 6467,
      "Ġcombined": 6468,
      "Ġchoose": 6469,
      "Ġaccepted": 6470,
      "Ġassistant": 6471,
      "Bar": 6472,
      "Her": 6473,
      "gor": 6474,
      "Ð½": 6475,
      "arus": 6476,
      "Ġbound": 6477,
      "Ġcam": 6478,
      "Ġcoin": 6479,
      "asa": 6480,
      "Ġstated": 6481,
      "ĠStra": 6482,
      "rier": 6483,
      "Ġunion": 6484,
      "Ġunknown": 6485,
      "Ġserve": 6486,
      "Ġdirectly": 6487,
      "ĠHoward": 6488,
      "ĠAbb": 6489,
      "Ġcontrolled": 6490,
      "Ġlearned": 6491,
      "Ġbottom": 6492,
      "Ġmerged": 6493,
      "Ac": 6494,
      "February": 6495,
      "friend": 6496,
      "kes": 6497,
      "Ġtouch": 6498,
      "Ġsand": 6499,
      "Ġpath": 6500,
      "ĠSix": 6501,
      "ĠAge": 6502,
      "ĠdÃ©": 6503,
      "ĠIc": 6504,
      "ĠDisc": 6505,
      "ivor": 6506,
      "avery": 6507,
      "ĠStation": 6508,
      "ĠStand": 6509,
      "Ġchairman": 6510,
      "oba": 6511,
      "Ġflat": 6512,
      "Ġtries": 6513,
      "ĠConference": 6514,
      "1965": 6515,
      "Ġexamples": 6516,
      "ographic": 6517,
      "Ġorganized": 6518,
      "ournal": 6519,
      "ĠSecurity": 6520,
      "Ġpaintings": 6521,
      "Ġdescribe": 6522,
      "Ġsources": 6523,
      "ĠForeign": 6524,
      "June": 6525,
      "boy": 6526,
      "lan": 6527,
      "Ġapart": 6528,
      "Ġsave": 6529,
      "Ġwins": 6530,
      "ĠMach": 6531,
      "ĠBack": 6532,
      "ĠBeng": 6533,
      "Ġlack": 6534,
      "Ġgrown": 6535,
      "ĠRights": 6536,
      "utions": 6537,
      "estic": 6538,
      "estab": 6539,
      "ourney": 6540,
      "oster": 6541,
      "Ġcompared": 6542,
      "Ġ74": 6543,
      "Ġaged": 6544,
      "Ġadvert": 6545,
      "Ġattention": 6546,
      "Ġphone": 6547,
      "Ġbackground": 6548,
      "ĠConnect": 6549,
      "Ġmedicine": 6550,
      "roduction": 6551,
      "Ġcontinue": 6552,
      "Ġillustr": 6553,
      "ĠBangladesh": 6554,
      "people": 6555,
      "ĠTak": 6556,
      "Ġlyrics": 6557,
      "standing": 6558,
      "Ġgained": 6559,
      "iral": 6560,
      "ĠKat": 6561,
      "uctions": 6562,
      "ĠWhit": 6563,
      "ĠSciences": 6564,
      "Ġemp": 6565,
      "Ġtitles": 6566,
      "ĠSimon": 6567,
      "Ġboys": 6568,
      "ĠYeah": 6569,
      "Ġrenamed": 6570,
      "ĠOttoman": 6571,
      "km": 6572,
      "enburg": 6573,
      "Ġmist": 6574,
      "Ġnecess": 6575,
      "ether": 6576,
      "Ġseats": 6577,
      "oka": 6578,
      "Ġtheme": 6579,
      "Ġraces": 6580,
      "ĠIndust": 6581,
      "ĠReagan": 6582,
      "Ġjobs": 6583,
      "ĠVienna": 6584,
      "Ġhorse": 6585,
      "ĠHungary": 6586,
      "ĠJohann": 6587,
      "feld": 6588,
      "mont": 6589,
      "put": 6590,
      "Ġir": 6591,
      "Ġcert": 6592,
      "Ġfuel": 6593,
      "Ġpictures": 6594,
      "roe": 6595,
      "Ġded": 6596,
      "ĠLim": 6597,
      "ĠField": 6598,
      "ĠNev": 6599,
      "ĠWien": 6600,
      "ĠOak": 6601,
      "||||||": 6602,
      "Ġsecurity": 6603,
      "Ġdifference": 6604,
      "Ġgrowing": 6605,
      "ĠSurvey": 6606,
      "Ġcharts": 6607,
      "Ġthriller": 6608,
      "Ġpurpose": 6609,
      "Ġpreviously": 6610,
      "Ġdigital": 6611,
      "ĠJacob": 6612,
      "Ġpianist": 6613,
      "sky": 6614,
      "Ġtheor": 6615,
      "Ġbishop": 6616,
      "alm": 6617,
      "asure": 6618,
      "elson": 6619,
      "ĠLat": 6620,
      "ĠKings": 6621,
      "aked": 6622,
      "ĠUt": 6623,
      "ĠVers": 6624,
      "neum": 6625,
      "Ġagent": 6626,
      "ext": 6627,
      "Ġfinish": 6628,
      "ĠOklahoma": 6629,
      "related": 6630,
      "ĠAntonio": 6631,
      "ĠEagle": 6632,
      "Govern": 6633,
      "dam": 6634,
      "fra": 6635,
      "ship": 6636,
      "inth": 6637,
      "ĠArizona": 6638,
      "Ġhar": 6639,
      "ĠPass": 6640,
      "Ġlif": 6641,
      "ĠList": 6642,
      "Ġrevolution": 6643,
      "ĠHeavy": 6644,
      "ĠChampion": 6645,
      "Ġ62": 6646,
      "Ġagric": 6647,
      "ussia": 6648,
      "Ġimpact": 6649,
      "verse": 6650,
      "Ġclaimed": 6651,
      "ĠYeung": 6652,
      "ĠSunday": 6653,
      "Ġcrashes": 6654,
      "Ġmentioned": 6655,
      "ĠNepal": 6656,
      "Saint": 6657,
      "pool": 6658,
      "vement": 6659,
      "worth": 6660,
      "Ġsnow": 6661,
      "icate": 6662,
      "Ġpers": 6663,
      "Ġmel": 6664,
      "ĠCape": 6665,
      "ĠFried": 6666,
      "1951": 6667,
      "ĠVenez": 6668,
      "oyd": 6669,
      "leviÄĩ": 6670,
      "iki": 6671,
      "Ġnumer": 6672,
      "Ġflows": 6673,
      "Ġconsider": 6674,
      "Ġrefers": 6675,
      "Ġrequired": 6676,
      "Musical": 6677,
      "Ġdissol": 6678,
      "ĠKorleviÄĩ": 6679,
      "Ġstraight": 6680,
      "zburg": 6681,
      "ĠTreat": 6682,
      "ĠDh": 6683,
      "fee": 6684,
      "oslav": 6685,
      "Ġchance": 6686,
      "Ġroute": 6687,
      "othy": 6688,
      "Ġquality": 6689,
      "ĠClark": 6690,
      "Ġaccom": 6691,
      "Ġemperor": 6692,
      "Ġmanaged": 6693,
      "Ġgraph": 6694,
      "Ġincreased": 6695,
      "Austr": 6696,
      "je": 6697,
      "noon": 6698,
      "Â°": 6699,
      "Ġfat": 6700,
      "Ġfly": 6701,
      "ĠHu": 6702,
      "avid": 6703,
      "Ġ180": 6704,
      "Ġ400": 6705,
      "ĠWarner": 6706,
      "ĠPalace": 6707,
      "1966": 6708,
      "ĠChristopher": 6709,
      "arma": 6710,
      "Ġpoison": 6711,
      "ĠMountain": 6712,
      "Ġsafe": 6713,
      "ĠColorado": 6714,
      "Ġearthquake": 6715,
      "Rober": 6716,
      "night": 6717,
      "Ġsell": 6718,
      "Ġchess": 6719,
      "Ġinte": 6720,
      "ĠSid": 6721,
      "ĠToy": 6722,
      "ĠTower": 6723,
      "ĠManchester": 6724,
      "ĠBurn": 6725,
      "ĠRen": 6726,
      "ĠRun": 6727,
      "Ġvia": 6728,
      "Ġmoves": 6729,
      "assador": 6730,
      "ĠAlice": 6731,
      "ously": 6732,
      "Ġagreement": 6733,
      "Ġsoil": 6734,
      "ĠShah": 6735,
      "ventures": 6736,
      "ector": 6737,
      "Ġprefer": 6738,
      "Ġarticle": 6739,
      "cycl": 6740,
      "Ġofficers": 6741,
      "Ġoperating": 6742,
      "ĠMountains": 6743,
      "Ġcorrect": 6744,
      "Ġapprox": 6745,
      "Ġproperty": 6746,
      "Ġparticularly": 6747,
      "ĠMovie": 6748,
      "AT": 6749,
      "Biography": 6750,
      "Gu": 6751,
      "My": 6752,
      "National": 6753,
      "leph": 6754,
      "ĠPa": 6755,
      "adow": 6756,
      "ĠChampions": 6757,
      "Ġconcent": 6758,
      "action": 6759,
      "Ġpron": 6760,
      "ĠPolice": 6761,
      "ĠHarris": 6762,
      "Ġhighly": 6763,
      "ographical": 6764,
      "ymph": 6765,
      "unny": 6766,
      "Ġinfluenced": 6767,
      "Ġtribe": 6768,
      "Australian": 6769,
      "ĠAffairs": 6770,
      "Don": 6771,
      "To": 6772,
      "zh": 6773,
      "Ġtheatre": 6774,
      "ĠSound": 6775,
      "oured": 6776,
      "ĠBilly": 6777,
      "ĠKash": 6778,
      "keep": 6779,
      "Ġ64": 6780,
      "ĠProject": 6781,
      "Ġmetres": 6782,
      "Ġ1902": 6783,
      "Ġcondition": 6784,
      "ĠHawai": 6785,
      "ĠGlobe": 6786,
      "Bus": 6787,
      "wright": 6788,
      "iser": 6789,
      "atively": 6790,
      "icut": 6791,
      "Ġmaint": 6792,
      "otic": 6793,
      "imal": 6794,
      "ĠNi": 6795,
      "ĠJam": 6796,
      "rac": 6797,
      "ĠStadium": 6798,
      "Ġnotable": 6799,
      "Ġscale": 6800,
      "Ġadventure": 6801,
      "Ã©s": 6802,
      "Ġtracks": 6803,
      "ĠTelevision": 6804,
      "idden": 6805,
      "Ġpresented": 6806,
      "Ġtemple": 6807,
      "ĠRobinson": 6808,
      "Ġwinds": 6809,
      "Ġcopy": 6810,
      "Ġinspired": 6811,
      "Ġemergency": 6812,
      "Ġdiplomat": 6813,
      "South": 6814,
      "bro": 6815,
      "ns": 6816,
      "via": 6817,
      "ĠSky": 6818,
      "Ġalt": 6819,
      "sters": 6820,
      "ĠRick": 6821,
      "ĠEver": 6822,
      "isters": 6823,
      "ĠVI": 6824,
      "Ġ39": 6825,
      "ipur": 6826,
      "Ġacts": 6827,
      "Ã©t": 6828,
      "Ġcolors": 6829,
      "Ġresign": 6830,
      "ĠCountry": 6831,
      "Ġremain": 6832,
      "ĠGuy": 6833,
      "ĠBaron": 6834,
      "ĠIndonesia": 6835,
      "ĠdÃ©part": 6836,
      "CC": 6837,
      "WA": 6838,
      "aire": 6839,
      "life": 6840,
      "press": 6841,
      "Ġfelt": 6842,
      "Ġpet": 6843,
      "ĠSn": 6844,
      "olo": 6845,
      "Ġhang": 6846,
      "ĠBart": 6847,
      "ĠRab": 6848,
      "ĠJordan": 6849,
      "Ġclothes": 6850,
      "Ġmeat": 6851,
      "Ġ84": 6852,
      "wealth": 6853,
      "ĠBeach": 6854,
      "Ġthinking": 6855,
      "ĠIndiana": 6856,
      "ĠDavis": 6857,
      "Ġinstruments": 6858,
      "Ġcastle": 6859,
      "ĠFinland": 6860,
      "Har": 6861,
      "nel": 6862,
      "rin": 6863,
      "yers": 6864,
      "ĠSever": 6865,
      "ĠAth": 6866,
      "ĠMaur": 6867,
      "Ġstores": 6868,
      "rik": 6869,
      "aste": 6870,
      "Ġacqu": 6871,
      "Ġperfect": 6872,
      "Ġsoldier": 6873,
      "Ġengineering": 6874,
      "Ġcreating": 6875,
      "Ġopposite": 6876,
      "November": 6877,
      "Ġalphabet": 6878,
      "ĠdÃ©partement": 6879,
      "mi": 6880,
      "emen": 6881,
      "ĠNorm": 6882,
      "ĠJose": 6883,
      "akers": 6884,
      "Ġorbit": 6885,
      "Ġuser": 6886,
      "Ġ44": 6887,
      "Ġyouth": 6888,
      "Ġ99": 6889,
      "ĠDevelopment": 6890,
      "ĠAllen": 6891,
      "scape": 6892,
      "Ġruler": 6893,
      "Ġhosted": 6894,
      "Ġgrass": 6895,
      "Ġhappy": 6896,
      "Ġmaterials": 6897,
      "ĠRoger": 6898,
      "ĠAdminist": 6899,
      "ancellor": 6900,
      "Ġurban": 6901,
      "Ġcatch": 6902,
      "Ġcongress": 6903,
      "Ġfreedom": 6904,
      "olph": 6905,
      "ĠCook": 6906,
      "iling": 6907,
      "ĠFern": 6908,
      "ĠFrid": 6909,
      "Ġstaff": 6910,
      "ĠKevin": 6911,
      "1901": 6912,
      "acre": 6913,
      "ĠVar": 6914,
      "ourg": 6915,
      "Ġseems": 6916,
      "ogue": 6917,
      "Ġteeth": 6918,
      "Ġshell": 6919,
      "iley": 6920,
      "venue": 6921,
      "Ġcolumn": 6922,
      "Ġ1907": 6923,
      "Ġknowledge": 6924,
      "Ġcontinu": 6925,
      "ĠCommunity": 6926,
      "ĠJunior": 6927,
      "Jos": 6928,
      "Since": 6929,
      "called": 6930,
      "mit": 6931,
      "Ġworth": 6932,
      "Ġfans": 6933,
      "ĠCas": 6934,
      "ĠGet": 6935,
      "ovich": 6936,
      "ĠOur": 6937,
      "oda": 6938,
      "iform": 6939,
      "ĠInf": 6940,
      "Ġuniverse": 6941,
      "Ġclimb": 6942,
      "ilding": 6943,
      "Ġscore": 6944,
      "Ġ125": 6945,
      "Ġcommand": 6946,
      "ĠAndre": 6947,
      "Ġanyone": 6948,
      "Ġuseful": 6949,
      "fully": 6950,
      "atsu": 6951,
      "ĠChristians": 6952,
      "Ġlasted": 6953,
      "Ġactivity": 6954,
      "Ã¨s": 6955,
      "Ġarrived": 6956,
      "encies": 6957,
      "Ġfocus": 6958,
      "ĠIndependence": 6959,
      "Ġadministrative": 6960,
      ";\"": 6961,
      "CW": 6962,
      "Car": 6963,
      "RA": 6964,
      "do": 6965,
      "iens": 6966,
      "ĠSri": 6967,
      "Ġdraft": 6968,
      "oly": 6969,
      "ĠMond": 6970,
      "Ġreform": 6971,
      "imore": 6972,
      "ĠWoman": 6973,
      "ĠGard": 6974,
      "ĠGordon": 6975,
      "ĠOsc": 6976,
      "ĠKal": 6977,
      "hens": 6978,
      "Ġ85": 6979,
      "Ã©n": 6980,
      "Ġassociation": 6981,
      "Ġ1906": 6982,
      "Ġevening": 6983,
      "Ġmanagement": 6984,
      "Ġpainted": 6985,
      "ĠBaseball": 6986,
      "Ġseparated": 6987,
      "Ġtrip": 6988,
      "ĠPeters": 6989,
      "ĠStudios": 6990,
      "ĠJerry": 6991,
      "ĠPrefecture": 6992,
      "Mich": 6993,
      "No": 6994,
      "Sw": 6995,
      "San": 6996,
      "mes": 6997,
      "ÑĢ": 6998,
      "alem": 6999,
      "Ġdomin": 7000,
      "Ġhurt": 7001,
      "ĠRic": 7002,
      "ĠNar": 7003,
      "aku": 7004,
      "ĠSports": 7005,
      "rowd": 7006,
      "Ġ800": 7007,
      "ĠArk": 7008,
      "Ġsupposed": 7009,
      "ĠSee": 7010,
      "Ġ250": 7011,
      "Ġguest": 7012,
      "Ġmodels": 7013,
      "Ġpattern": 7014,
      "Ġsymptoms": 7015,
      "Ġtribes": 7016,
      "Ġdegrees": 7017,
      "Ġbrief": 7018,
      "ĠMuslims": 7019,
      "Ġescape": 7020,
      "ĠTechnology": 7021,
      "ĠConnecticut": 7022,
      "bar": 7023,
      "oria": 7024,
      "alian": 7025,
      "Ġfalls": 7026,
      "ĠSud": 7027,
      "Ġmut": 7028,
      "Ġdress": 7029,
      "ĠIl": 7030,
      "Ġgiant": 7031,
      "Ġonto": 7032,
      "ĠGene": 7033,
      "ĠGEF": 7034,
      "ĠStew": 7035,
      "ĠYam": 7036,
      "Ġprincip": 7037,
      "Ġfinancial": 7038,
      "Ġsolid": 7039,
      "Ġoccurs": 7040,
      "Ġdebuted": 7041,
      "ĠActress": 7042,
      "Ġhotel": 7043,
      "ĠMelbourne": 7044,
      "Ġpromoted": 7045,
      "Ġthrone": 7046,
      "Ġestimated": 7047,
      "Ġillegal": 7048,
      "kov": 7049,
      "wick": 7050,
      "Ġsalt": 7051,
      "Ġwave": 7052,
      "atar": 7053,
      "ester": 7054,
      "Ġbill": 7055,
      "Ġperman": 7056,
      "Ġpair": 7057,
      "Ġpneum": 7058,
      "Ġhtt": 7059,
      "Ġhabit": 7060,
      "ĠMiller": 7061,
      "idency": 7062,
      "ĠPy": 7063,
      "Ġrev": 7064,
      "ĠDa": 7065,
      "urday": 7066,
      "avel": 7067,
      "abe": 7068,
      "Ġchampions": 7069,
      "oki": 7070,
      "Ġacted": 7071,
      "anga": 7072,
      "Ġarts": 7073,
      "Ġcalls": 7074,
      "ĠAnna": 7075,
      "Ġtrav": 7076,
      "atherine": 7077,
      "Ġ...": 7078,
      "Ġdepart": 7079,
      "appy": 7080,
      "Ġbigger": 7081,
      "ĠSalzburg": 7082,
      "ĠAlexand": 7083,
      "Ġbirthday": 7084,
      "ĠNazi": 7085,
      "ĠMemorial": 7086,
      "Ġbaby": 7087,
      "oenix": 7088,
      "ĠAzerbaijan": 7089,
      "Law": 7090,
      "World": 7091,
      "rm": 7092,
      "was": 7093,
      "orpor": 7094,
      "Ġsav": 7095,
      "Ġsorry": 7096,
      "ĠDetroit": 7097,
      "ĠFather": 7098,
      "oses": 7099,
      "ĠStat": 7100,
      "inea": 7101,
      "ĠScient": 7102,
      "onym": 7103,
      "Ġcontrovers": 7104,
      "Ġrepresentative": 7105,
      "ĠMontreal": 7106,
      "ĠPrix": 7107,
      "ĠMaryland": 7108,
      "ĠUkrainian": 7109,
      "ĠMatthew": 7110,
      "uerto": 7111,
      "ĠMuhammad": 7112,
      "Ġdivorced": 7113,
      "Mont": 7114,
      "oj": 7115,
      "orph": 7116,
      "Ġpages": 7117,
      "olt": 7118,
      "ĠHamp": 7119,
      "ĠLoc": 7120,
      "ĠLGBT": 7121,
      "agues": 7122,
      "Ġitems": 7123,
      "uda": 7124,
      "nection": 7125,
      "Ġpartner": 7126,
      "Ġ168": 7127,
      "Ġprovided": 7128,
      "ĠApple": 7129,
      "Ġreaction": 7130,
      "ĠArmenian": 7131,
      "ĠKentucky": 7132,
      "Ġdollars": 7133,
      "Ġheadquarters": 7134,
      "ĠGriff": 7135,
      "mm": 7136,
      "mund": 7137,
      "ÃŁ": 7138,
      "iner": 7139,
      "ĠTen": 7140,
      "ĠTamil": 7141,
      "ĠBos": 7142,
      "ĠGon": 7143,
      "ĠKl": 7144,
      "Ġvide": 7145,
      "asters": 7146,
      "Ġseg": 7147,
      "Ġ83": 7148,
      "ĠComedy": 7149,
      "anner": 7150,
      "ĠJuan": 7151,
      "Ġquarter": 7152,
      "Ġbroken": 7153,
      "Ġguard": 7154,
      "Ġclassical": 7155,
      "ĠParker": 7156,
      "ĠMedia": 7157,
      "Ġsuicide": 7158,
      "Ġgeneration": 7159,
      "Ġshooting": 7160,
      "Ġtypically": 7161,
      "General": 7162,
      "cott": 7163,
      "Ġcrown": 7164,
      "Ġhits": 7165,
      "ĠIvan": 7166,
      "ĠLyn": 7167,
      "Ġthus": 7168,
      "Ġgreater": 7169,
      "ĠDemocr": 7170,
      "ĠRain": 7171,
      "ĠFive": 7172,
      "ĠNash": 7173,
      "ĠUnd": 7174,
      "ĠStock": 7175,
      "Ġ82": 7176,
      "ĠAny": 7177,
      "ĠĠĠ": 7178,
      "Ġoperations": 7179,
      "Ġannual": 7180,
      "Ġclasses": 7181,
      "Ġvariety": 7182,
      "Ġeconomist": 7183,
      "Ġnegative": 7184,
      "December": 7185,
      "Robert": 7186,
      "AC": 7187,
      "RÃŃo": 7188,
      "Ã¸": 7189,
      "enge": 7190,
      "igg": 7191,
      "ĠMember": 7192,
      "ĠHou": 7193,
      "ĠHamilton": 7194,
      "ĠLank": 7195,
      "ĠFel": 7196,
      "ĠNFL": 7197,
      "Ġpoly": 7198,
      "Ġ94": 7199,
      "Ġ101": 7200,
      "Ġsyn": 7201,
      "Ġpregn": 7202,
      "ĠBlues": 7203,
      "Ġ1909": 7204,
      "Ġoperation": 7205,
      "Ġnovels": 7206,
      "Ġfields": 7207,
      "ĠMoore": 7208,
      "ĠÂ°": 7209,
      "Ġcartoon": 7210,
      "ĠHollywood": 7211,
      "',": 7212,
      "IV": 7213,
      "Paul": 7214,
      "inity": 7215,
      "inton": 7216,
      "ĠCru": 7217,
      "omas": 7218,
      "ĠBird": 7219,
      "ĠPok": 7220,
      "ĠTheatre": 7221,
      "ĠGulf": 7222,
      "ĠKit": 7223,
      "umin": 7224,
      "ieval": 7225,
      "Ġvoices": 7226,
      "Ġ36": 7227,
      "Ġspring": 7228,
      "Ġcontent": 7229,
      "Ġpriest": 7230,
      "Ġtraffic": 7231,
      "axy": 7232,
      "Ġassass": 7233,
      "Ġadditional": 7234,
      "Ġgods": 7235,
      "Ġtreaty": 7236,
      "Ġfeeling": 7237,
      "osaurus": 7238,
      "Ġcelebrated": 7239,
      "David": 7240,
      "haw": 7241,
      "Ġworship": 7242,
      "ĠTest": 7243,
      "Ġdiam": 7244,
      "ĠPont": 7245,
      "Ġreject": 7246,
      "ĠReb": 7247,
      "andon": 7248,
      "ĠKa": 7249,
      "Ġheav": 7250,
      "oku": 7251,
      "icken": 7252,
      "Ġdecide": 7253,
      "Ġ1904": 7254,
      "Ġphysics": 7255,
      "Ġhousehold": 7256,
      "Ġcalendar": 7257,
      "ĠCommonwealth": 7258,
      "din": 7259,
      "vard": 7260,
      "ÑĤ": 7261,
      "ĠCer": 7262,
      "ĠCamer": 7263,
      "Ġstroke": 7264,
      "1940": 7265,
      "odox": 7266,
      "Ġchurches": 7267,
      "ĠInstead": 7268,
      "Ġshared": 7269,
      "Ġ98": 7270,
      "active": 7271,
      "Ġafternoon": 7272,
      "ancer": 7273,
      "ĠJohnny": 7274,
      "ĠPlan": 7275,
      "Station": 7276,
      "Ġaddress": 7277,
      "ĠRoberts": 7278,
      "Ġvalley": 7279,
      "Ġelectricity": 7280,
      "Ġdoub": 7281,
      "www": 7282,
      "Ġhydrogen": 7283,
      "ĠSyria": 7284,
      "ĠChildren": 7285,
      "Ġalternative": 7286,
      "Ġorganizations": 7287,
      "Ġinsects": 7288,
      "Ġextremely": 7289,
      "BE": 7290,
      "En": 7291,
      "Not": 7292,
      "car": 7293,
      "jab": 7294,
      "lie": 7295,
      "mouth": 7296,
      "oro": 7297,
      "Ġbag": 7298,
      "Ġmart": 7299,
      "ĠMong": 7300,
      "uster": 7301,
      "amous": 7302,
      "berry": 7303,
      "ĠVik": 7304,
      "auss": 7305,
      "Ġrecip": 7306,
      "ĠAdams": 7307,
      "Ġsolar": 7308,
      "ĠQuebec": 7309,
      "Ġphysician": 7310,
      "Ġtalking": 7311,
      "Ġsettlement": 7312,
      "Ġpremier": 7313,
      "ĠMargaret": 7314,
      "ingen": 7315,
      "ĠLeb": 7316,
      "agh": 7317,
      "asts": 7318,
      "Ġherself": 7319,
      "ibly": 7320,
      "Ġscene": 7321,
      "ĠReal": 7322,
      "Ġdrums": 7323,
      "rops": 7324,
      "Ġslight": 7325,
      "ĠMilan": 7326,
      "ĠBusiness": 7327,
      "Ġconvicted": 7328,
      "ĠRangers": 7329,
      "Life": 7330,
      "Med": 7331,
      "oni": 7332,
      "Ġsons": 7333,
      "Ġfantasy": 7334,
      "ĠTam": 7335,
      "Ġhy": 7336,
      "ĠBav": 7337,
      "ĠLow": 7338,
      "Ġthrow": 7339,
      "Ġgone": 7340,
      "ĠDance": 7341,
      "ĠJournal": 7342,
      "raham": 7343,
      "Ġvice": 7344,
      "ĠChairman": 7345,
      "8072": 7346,
      "ĠMcD": 7347,
      "Ġengines": 7348,
      "ĠSingh": 7349,
      "ĠContinental": 7350,
      "Ġviolence": 7351,
      "ĠProtest": 7352,
      "ladim": 7353,
      "Ġsafety": 7354,
      "US": 7355,
      "sm": 7356,
      "anthrop": 7357,
      "Ġcaught": 7358,
      "Ġfit": 7359,
      "ige": 7360,
      "ĠCass": 7361,
      "ĠChem": 7362,
      "Ġrepe": 7363,
      "ĠRy": 7364,
      "Ġheight": 7365,
      "resp": 7366,
      "ogether": 7367,
      "Ġ1812": 7368,
      "Ġnoted": 7369,
      "ĠAlbum": 7370,
      "Ġunc": 7371,
      "Ġsched": 7372,
      "Ġimag": 7373,
      "ĠAustin": 7374,
      "Ġflowers": 7375,
      "Ġquant": 7376,
      "ĠForces": 7377,
      "Ġdepression": 7378,
      "Ġextended": 7379,
      "Ġdefend": 7380,
      "Ġborders": 7381,
      "Ġindustrial": 7382,
      "Ġdemon": 7383,
      "Musicians": 7384,
      "ĠKnight": 7385,
      "ĠLabour": 7386,
      "ĠFinnish": 7387,
      "ĠVenezuel": 7388,
      "Russian": 7389,
      "Singers": 7390,
      "bu": 7391,
      "cia": 7392,
      "iology": 7393,
      "jo": 7394,
      "Ġvert": 7395,
      "isp": 7396,
      "Ġsens": 7397,
      "Ġbra": 7398,
      "aling": 7399,
      "alists": 7400,
      "Ġcanton": 7401,
      "Ġcounter": 7402,
      "ĠActor": 7403,
      "iden": 7404,
      "otten": 7405,
      "ĠRio": 7406,
      "racy": 7407,
      "1959": 7408,
      "ĠVeg": 7409,
      "Ġrugby": 7410,
      "Ġjun": 7411,
      "Ġ93": 7412,
      "iversities": 7413,
      "Ġamb": 7414,
      "Ġmanagers": 7415,
      "Ġresponse": 7416,
      "Ġlearning": 7417,
      "Ġphilosophy": 7418,
      "Ġadministration": 7419,
      "Ġarchitecture": 7420,
      "Phil": 7421,
      "ĠPersian": 7422,
      "ĠLarry": 7423,
      "Ġnortheast": 7424,
      "WW": 7425,
      "rum": 7426,
      "sburgh": 7427,
      "xide": 7428,
      "Ġwalls": 7429,
      "alty": 7430,
      "Ġfaster": 7431,
      "Ġfranch": 7432,
      "Ġfully": 7433,
      "Ġmales": 7434,
      "ĠTun": 7435,
      "ĠCBS": 7436,
      "iring": 7437,
      "umes": 7438,
      "Ġusers": 7439,
      "ĠThird": 7440,
      "Ġliber": 7441,
      "Ġserves": 7442,
      "vents": 7443,
      "Ġresigned": 7444,
      "ĠOnce": 7445,
      "Ġretire": 7446,
      "Ġremaining": 7447,
      "Star": 7448,
      "Ġlegend": 7449,
      "Ġcommunities": 7450,
      "Ġsouthwest": 7451,
      "Ġeasier": 7452,
      "ĠFranklin": 7453,
      "Ġparticles": 7454,
      "ĠCommunist": 7455,
      "ĠDiego": 7456,
      "Ġstrength": 7457,
      "President": 7458,
      "low": 7459,
      "wich": 7460,
      "Äĥ": 7461,
      "à¦": 7462,
      "isi": 7463,
      "isen": 7464,
      "Ġ114": 7465,
      "Ġpan": 7466,
      "ingham": 7467,
      "ĠAy": 7468,
      "ĠHello": 7469,
      "ĠDak": 7470,
      "ĠFur": 7471,
      "uns": 7472,
      "uls": 7473,
      "ithuan": 7474,
      "acing": 7475,
      "Ġarran": 7476,
      "iami": 7477,
      "Ġcomposers": 7478,
      "ĠNorman": 7479,
      "Ġexplos": 7480,
      "Ġsuit": 7481,
      "ĠSamuel": 7482,
      "chers": 7483,
      "FFFF": 7484,
      "Ġsitcom": 7485,
      "ĠSaturday": 7486,
      "Ġinventor": 7487,
      "Ġhomes": 7488,
      "Ġmicro": 7489,
      "ĠTemple": 7490,
      "Ġexactly": 7491,
      "hat": 7492,
      "pur": 7493,
      "then": 7494,
      "Ġafra": 7495,
      "Ġpit": 7496,
      "ĠMans": 7497,
      "ĠHem": 7498,
      "adi": 7499,
      "ĠRonald": 7500,
      "ĠNBA": 7501,
      "Ġstick": 7502,
      "ichi": 7503,
      "ĠUniverse": 7504,
      "Ġ72": 7505,
      "Ġunique": 7506,
      "Ġclothing": 7507,
      "Ġ145": 7508,
      "Ġattend": 7509,
      "Ġcolour": 7510,
      "Ġfeaturing": 7511,
      "1962": 7512,
      "Ġrank": 7513,
      "Ġcausing": 7514,
      "lication": 7515,
      "Ġevil": 7516,
      "Ġproposed": 7517,
      "Ġinjured": 7518,
      "Black": 7519,
      "Ġrevealed": 7520,
      "cyclop": 7521,
      "ĠKashmir": 7522,
      "Ġafraid": 7523,
      "RI": 7524,
      "West": 7525,
      "jamin": 7526,
      "Ġ117": 7527,
      "ĠCart": 7528,
      "ĠMak": 7529,
      "ĠMunicip": 7530,
      "ĠImp": 7531,
      "ĠHell": 7532,
      "ctic": 7533,
      "ĠDu": 7534,
      "ĠWy": 7535,
      "Ġconstitu": 7536,
      "Ġchain": 7537,
      "rance": 7538,
      "Ġtherefore": 7539,
      "Ġowners": 7540,
      "ĠRussell": 7541,
      "Ġfollows": 7542,
      "Ġ1905": 7543,
      "Ġprovides": 7544,
      "helm": 7545,
      "Ġofficials": 7546,
      "Ġphotographer": 7547,
      "ĠFront": 7548,
      "Ġexpected": 7549,
      "igenous": 7550,
      "ibbean": 7551,
      "According": 7552,
      "HO": 7553,
      "Qu": 7554,
      "Rich": 7555,
      "mother": 7556,
      "onian": 7557,
      "Ġhip": 7558,
      "ĠMit": 7559,
      "iders": 7560,
      "elve": 7561,
      "ĠHum": 7562,
      "Ġlosing": 7563,
      "char": 7564,
      "Ġgarden": 7565,
      "ĠDallas": 7566,
      "ĠRaw": 7567,
      "ĠNam": 7568,
      "ĠWonder": 7569,
      "uto": 7570,
      "uma": 7571,
      "illes": 7572,
      "apes": 7573,
      "onge": 7574,
      "Ġchoice": 7575,
      "Ġ92": 7576,
      "ocked": 7577,
      "Ġshowing": 7578,
      "Ġcrimes": 7579,
      "Ġsky": 7580,
      "Ġfinds": 7581,
      "udden": 7582,
      "ĠChristianity": 7583,
      "Ġcaptain": 7584,
      "Ġtreated": 7585,
      "ĠStudies": 7586,
      "Ġrequire": 7587,
      "What": 7588,
      "ĠSarah": 7589,
      "Ġboat": 7590,
      "ĠBaby": 7591,
      "Ġsenior": 7592,
      "ĠObama": 7593,
      "ĠMalaysia": 7594,
      "Ġimmediately": 7595,
      "ĠIceland": 7596,
      "Ġpneumonia": 7597,
      "LGBT": 7598,
      "ĠIS": 7599,
      "ĠBoe": 7600,
      "ĠPad": 7601,
      "ĠLiter": 7602,
      "irates": 7603,
      "ĠExt": 7604,
      "thm": 7605,
      "that": 7606,
      "thodox": 7607,
      "Ġwithd": 7608,
      "illing": 7609,
      "ubb": 7610,
      "Ġnotes": 7611,
      "Ġspend": 7612,
      "Ġ89": 7613,
      "prise": 7614,
      "Ġcommission": 7615,
      "Ġdesert": 7616,
      "ĠLaure": 7617,
      "Ġmilk": 7618,
      "Ġminute": 7619,
      "ĠRomanian": 7620,
      "Ġshortly": 7621,
      "ÃŃn": 7622,
      "Ġdialect": 7623,
      "CD": 7624,
      "har": 7625,
      "Ġsoul": 7626,
      "Ġpra": 7627,
      "ĠSure": 7628,
      "usalem": 7629,
      "idi": 7630,
      "ĠBenn": 7631,
      "ĠPas": 7632,
      "ĠPoint": 7633,
      "Ġneck": 7634,
      "ĠNelson": 7635,
      "rage": 7636,
      "ĠOp": 7637,
      "ĠKu": 7638,
      "ipment": 7639,
      "ogan": 7640,
      "Ġ42": 7641,
      "Ġplaywright": 7642,
      "ĠLeader": 7643,
      "ultan": 7644,
      "ĠEngine": 7645,
      "ĠDean": 7646,
      "ĠYouT": 7647,
      "ĠBarry": 7648,
      "Ġfemales": 7649,
      "ĠSteven": 7650,
      "ĠMadrid": 7651,
      "Ġtrouble": 7652,
      "Ġinteresting": 7653,
      "Ð¾Ð": 7654,
      "Ġfirm": 7655,
      "allel": 7656,
      "Michael": 7657,
      "Ġvideos": 7658,
      "AD": 7659,
      "Mon": 7660,
      "With": 7661,
      "inian": 7662,
      "Ġsoutheast": 7663,
      "enes": 7664,
      "Ġhunt": 7665,
      "ĠHurricane": 7666,
      "ĠHospital": 7667,
      "Ġalive": 7668,
      "etime": 7669,
      "ĠNich": 7670,
      "aple": 7671,
      "ĠVoices": 7672,
      "Ġexerc": 7673,
      "Ġrisk": 7674,
      "Ġweak": 7675,
      "Ġdisplay": 7676,
      "ĠIsa": 7677,
      "Ġqueen": 7678,
      "1963": 7679,
      "Ġreceive": 7680,
      "Ġturns": 7681,
      "Ġpoetry": 7682,
      "Ġspeaking": 7683,
      "fficient": 7684,
      "ĠMovement": 7685,
      "CAP": 7686,
      "Ġparticipated": 7687,
      "Ġaffected": 7688,
      "ĠBarbara": 7689,
      "Ġoccurred": 7690,
      "Ġbacteria": 7691,
      "Ġliquid": 7692,
      "Austrian": 7693,
      "Ġapproximately": 7694,
      ")\"": 7695,
      "By": 7696,
      "ST": 7697,
      "ban": 7698,
      "dorf": 7699,
      "maker": 7700,
      "zi": 7701,
      "ÅŁ": 7702,
      "Ġsites": 7703,
      "Ġwound": 7704,
      "Ġocean": 7705,
      "lem": 7706,
      "Ġdream": 7707,
      "ushed": 7708,
      "aded": 7709,
      "ĠFall": 7710,
      "uties": 7711,
      "ĠOD": 7712,
      "1950": 7713,
      "Ġatm": 7714,
      "Ġ33": 7715,
      "Ġcounties": 7716,
      "Ġmarry": 7717,
      "1961": 7718,
      "Ġreplace": 7719,
      "Ġmathematics": 7720,
      "Ġdogs": 7721,
      "Ġindividuals": 7722,
      "ĠGirls": 7723,
      "ĠCharlie": 7724,
      "Ġsuffered": 7725,
      "Int": 7726,
      "Ñģ": 7727,
      "Ġens": 7728,
      "ining": 7729,
      "Ġminist": 7730,
      "ĠAqu": 7731,
      "ĠPin": 7732,
      "Ġlie": 7733,
      "ĠLad": 7734,
      "unc": 7735,
      "ĠKon": 7736,
      "osition": 7737,
      "ieg": 7738,
      "Ġvo": 7739,
      "ĠVas": 7740,
      "Ġchose": 7741,
      "endment": 7742,
      "Ġnote": 7743,
      "Ġactions": 7744,
      "Ġrot": 7745,
      "Ã©r": 7746,
      "Ġdisestab": 7747,
      "ĠZe": 7748,
      "ĠForest": 7749,
      "Ġcommunes": 7750,
      "ĠAgain": 7751,
      "Ġappearances": 7752,
      "Ġsettled": 7753,
      "ĠCarlos": 7754,
      "Ġvirus": 7755,
      "Ġholiday": 7756,
      "Ġsemi": 7757,
      "Ġapplied": 7758,
      "ĠEthiop": 7759,
      "400": 7760,
      "Mil": 7761,
      "iques": 7762,
      "Ġtill": 7763,
      "Ġselling": 7764,
      "Ġinternet": 7765,
      "left": 7766,
      "ĠCre": 7767,
      "ĠCall": 7768,
      "Ġnose": 7769,
      "urer": 7770,
      "ĠNort": 7771,
      "Ġevol": 7772,
      "ĠEP": 7773,
      "ods": 7774,
      "ĠStev": 7775,
      "iph": 7776,
      "Ġ1890": 7777,
      "Ġimages": 7778,
      "Ġperhaps": 7779,
      "rett": 7780,
      "Ġvisited": 7781,
      "ĠCooper": 7782,
      "Ġeducator": 7783,
      "lementary": 7784,
      "ĠÂ£": 7785,
      "Ġencou": 7786,
      "ĠSusan": 7787,
      "Business": 7788,
      "Work": 7789,
      "Ġsort": 7790,
      "ĠSain": 7791,
      "Ġmm": 7792,
      "ĠTib": 7793,
      "Ġtools": 7794,
      "Ġhall": 7795,
      "eler": 7796,
      "ĠBan": 7797,
      "Ġlose": 7798,
      "ĠKath": 7799,
      "ĠStr": 7800,
      "ĠVis": 7801,
      "Personal": 7802,
      "Ġ176": 7803,
      "ailed": 7804,
      "Ġconsum": 7805,
      "ĠPolit": 7806,
      "Ġ1903": 7807,
      "Ġinvasion": 7808,
      "Ġclubs": 7809,
      "Ġpresenter": 7810,
      "ĠYears": 7811,
      "ĠJerusalem": 7812,
      "ĠPlayStation": 7813,
      "Ġsuggested": 7814,
      "ĠNapole": 7815,
      "gressive": 7816,
      "Ã«": 7817,
      "Ġult": 7818,
      "orage": 7819,
      "Ġft": 7820,
      "Ġfired": 7821,
      "Ġmax": 7822,
      "ĠAld": 7823,
      "ĠCome": 7824,
      "ĠMaced": 7825,
      "ĠPierre": 7826,
      "Ġnarrow": 7827,
      "ulate": 7828,
      "ĠStars": 7829,
      "Ġchrom": 7830,
      "ogne": 7831,
      "ĠAlaska": 7832,
      "achi": 7833,
      "Ġcolony": 7834,
      "ounced": 7835,
      "gery": 7836,
      "ĠAmaz": 7837,
      "ĠHeritage": 7838,
      "center": 7839,
      "Ġvoted": 7840,
      "ĠMagn": 7841,
      "Ġmotion": 7842,
      "Ġfigures": 7843,
      "Ġtranslated": 7844,
      "Geography": 7845,
      "Ġslowly": 7846,
      "ĠWayne": 7847,
      "ĠTreaty": 7848,
      "!\"": 7849,
      "Dutch": 7850,
      "itals": 7851,
      "ĠSem": 7852,
      "ĠMother": 7853,
      "ĠPuerto": 7854,
      "ĠLl": 7855,
      "ĠLas": 7856,
      "ading": 7857,
      "ĠDragon": 7858,
      "ĠNBC": 7859,
      "ĠWould": 7860,
      "achel": 7861,
      "Ġplate": 7862,
      "ĠChamber": 7863,
      "Ġteaching": 7864,
      "Ġcolle": 7865,
      "ĠClar": 7866,
      "leyball": 7867,
      "Ġformerly": 7868,
      "amba": 7869,
      "âĢĿ.": 7870,
      "Ġchanging": 7871,
      "Ġsomew": 7872,
      "Ġsurvive": 7873,
      "ĠBooks": 7874,
      "osaurs": 7875,
      "Ġstructures": 7876,
      "Ġmessage": 7877,
      "ĠCuba": 7878,
      "Ġelectronic": 7879,
      "ĠFilip": 7880,
      "Ġdedicated": 7881,
      "120": 7882,
      "Back": 7883,
      "à¥": 7884,
      "ê¯": 7885,
      "Ġboss": 7886,
      "Ġpand": 7887,
      "Ġpurch": 7888,
      "ĠSC": 7889,
      "ĠMess": 7890,
      "ĠRat": 7891,
      "iments": 7892,
      "Ġforg": 7893,
      "ĠKo": 7894,
      "osm": 7895,
      "Ġ38": 7896,
      "ĠYug": 7897,
      "Ġ48": 7898,
      "Ġ59": 7899,
      "ĠSpeak": 7900,
      "arsh": 7901,
      "Ġflower": 7902,
      "250": 7903,
      "Ġarticles": 7904,
      "Ġgoods": 7905,
      "Ġemot": 7906,
      "Ġrepresents": 7907,
      "Ġavoid": 7908,
      "Ass": 7909,
      "umni": 7910,
      "Ġcoup": 7911,
      "Ġleadership": 7912,
      "Ġaudience": 7913,
      "Ġathlet": 7914,
      "Ġthousand": 7915,
      "celona": 7916,
      "Ġsculptor": 7917,
      "Ġcustom": 7918,
      "Ġprize": 7919,
      "ĠGabri": 7920,
      "ĠPunjab": 7921,
      "Par": 7922,
      "wald": 7923,
      "ĠAuthor": 7924,
      "Ġtox": 7925,
      "Ġhill": 7926,
      "Ġhole": 7927,
      "ching": 7928,
      "emporary": 7929,
      "ĠWhe": 7930,
      "Ġbear": 7931,
      "Ġselection": 7932,
      "Ġ1840": 7933,
      "Ġexchange": 7934,
      "Ġjur": 7935,
      "Ġrough": 7936,
      "ailand": 7937,
      "Ġfounding": 7938,
      "Ġprey": 7939,
      "Ġresc": 7940,
      "ĠPhoenix": 7941,
      "Ġactivists": 7942,
      "ĠArchbishop": 7943,
      "Ġeaten": 7944,
      "Ġdevices": 7945,
      "surance": 7946,
      "Ġcalcul": 7947,
      "Ġwrestling": 7948,
      "Ġquestions": 7949,
      "Ġswimming": 7950,
      "ĠSyrian": 7951,
      "ĠHouston": 7952,
      "Mart": 7953,
      "Ġax": 7954,
      "organ": 7955,
      "ĠSay": 7956,
      "ĠTropical": 7957,
      "ilia": 7958,
      "ĠBed": 7959,
      "ĠBud": 7960,
      "Ġlayer": 7961,
      "ĠLux": 7962,
      "imens": 7963,
      "ĠWright": 7964,
      "ĠUniversal": 7965,
      "angel": 7966,
      "cluding": 7967,
      "Ġresources": 7968,
      "ĠCaribbean": 7969,
      "Ġpoem": 7970,
      "ĠXing": 7971,
      "ĠSupport": 7972,
      "Ġyoungest": 7973,
      "Ġgenetic": 7974,
      "ĠSalv": 7975,
      "Ġhistoric": 7976,
      "Ġnomination": 7977,
      "ĠArabic": 7978,
      "Ġweapon": 7979,
      "ĠBatman": 7980,
      "Ġscholar": 7981,
      "Ġscholars": 7982,
      "Ġwaters": 7983,
      "Ġrestaurant": 7984,
      "Ġmunicipalities": 7985,
      "Ġlibrary": 7986,
      "ĠBoeing": 7987,
      "North": 7988,
      "late": 7989,
      "rine": 7990,
      "ss": 7991,
      "onne": 7992,
      "rec": 7993,
      "Ġwonder": 7994,
      "Ġcards": 7995,
      "Ġcrowd": 7996,
      "ĠAM": 7997,
      "ĠCold": 7998,
      "ĠIowa": 7999,
      "eless": 8000,
      "ĠDur": 8001,
      "ĠFem": 8002,
      "ĠWinn": 8003,
      "ĠGor": 8004,
      "Ġeating": 8005,
      "ĠOm": 8006,
      "uled": 8007,
      "abad": 8008,
      "ellite": 8009,
      "Ġ1898": 8010,
      "speak": 8011,
      "Ġrocks": 8012,
      "Ġneut": 8013,
      "ĠConstant": 8014,
      "Ġdrummer": 8015,
      "ĠGuinea": 8016,
      "Ġski": 8017,
      "etta": 8018,
      "ĠAgency": 8019,
      "Ġcultures": 8020,
      "who": 8021,
      "Ġgrav": 8022,
      "Ġcycle": 8023,
      "Ġimmigr": 8024,
      "Ġopin": 8025,
      "Ġbeliefs": 8026,
      "Ġexecuted": 8027,
      "Ġsucceeded": 8028,
      "ĠFriday": 8029,
      "ĠStewart": 8030,
      "ladimir": 8031,
      "Afr": 8032,
      "Sec": 8033,
      "pret": 8034,
      "Ġsumm": 8035,
      "ĠSaud": 8036,
      "ĠTrain": 8037,
      "elia": 8038,
      "Ġisn": 8039,
      "ĠBry": 8040,
      "child": 8041,
      "ĠHeb": 8042,
      "ĠHey": 8043,
      "ĠChart": 8044,
      "oga": 8045,
      "Ġmeets": 8046,
      "ĠFrances": 8047,
      "Ġformat": 8048,
      "Ġsupply": 8049,
      "Ġcof": 8050,
      "Ġleads": 8051,
      "ĠHarrison": 8052,
      "Ġrefused": 8053,
      "Ġprojects": 8054,
      "Ġangry": 8055,
      "ĠPeninsula": 8056,
      "Ġsituation": 8057,
      "Ġbehavior": 8058,
      "Ġdomestic": 8059,
      "ĠBaltimore": 8060,
      "ĠHeavyweight": 8061,
      "hatt": 8062,
      "such": 8063,
      "á»": 8064,
      "onight": 8065,
      "Ġtheat": 8066,
      "anes": 8067,
      "Ġsang": 8068,
      "Ġgall": 8069,
      "ĠRan": 8070,
      "Ġstock": 8071,
      "rome": 8072,
      "agen": 8073,
      "ĠUN": 8074,
      "iffer": 8075,
      "Ġuncle": 8076,
      "Ġ179": 8077,
      "Ġ91": 8078,
      "Ġrecomm": 8079,
      "ixon": 8080,
      "Ġregional": 8081,
      "ĠBrun": 8082,
      "Ġincome": 8083,
      "Ġincident": 8084,
      "umbent": 8085,
      "urray": 8086,
      "Ġpatient": 8087,
      "Ġprotected": 8088,
      "kar": 8089,
      "oom": 8090,
      "sec": 8091,
      "Ġur": 8092,
      "orus": 8093,
      "Ġsweet": 8094,
      "Ġhyp": 8095,
      "ĠCong": 8096,
      "ĠCole": 8097,
      "ĠIce": 8098,
      "ĠHop": 8099,
      "ĠPed": 8100,
      "ĠLam": 8101,
      "Ġthin": 8102,
      "ivia": 8103,
      "ĠRyan": 8104,
      "ĠNav": 8105,
      "Ġconstruct": 8106,
      "Ġconnection": 8107,
      "iverpool": 8108,
      "Ġperforming": 8109,
      "Ġ1861": 8110,
      "Ġequipment": 8111,
      "Ġchemist": 8112,
      "Ġdiagn": 8113,
      "Ġlimit": 8114,
      "Ġnucle": 8115,
      "Ġmethods": 8116,
      "ĠBetween": 8117,
      "ĠConfederate": 8118,
      "Ġtomorrow": 8119,
      "Ġcriminal": 8120,
      ".âĢĻ": 8121,
      "GN": 8122,
      "ei": 8123,
      "hin": 8124,
      "wig": 8125,
      "Ġcra": 8126,
      "ĠAC": 8127,
      "ione": 8128,
      "ĠCH": 8129,
      "ĠCow": 8130,
      "ĠBou": 8131,
      "ĠTheod": 8132,
      "ĠRight": 8133,
      "1958": 8134,
      "Ġvs": 8135,
      "ugs": 8136,
      "ĠVideo": 8137,
      "ifying": 8138,
      "Ġ1893": 8139,
      "Ġrise": 8140,
      "ample": 8141,
      "Ġ150": 8142,
      "ection": 8143,
      "Ġfeed": 8144,
      "Ġfootballers": 8145,
      "Ġdistinct": 8146,
      "ĠOrthodox": 8147,
      "Ġtitled": 8148,
      "Ã¶n": 8149,
      "ĠHighway": 8150,
      "ĠBoys": 8151,
      "Ġguns": 8152,
      "ĠLiberal": 8153,
      "Ġrowspan": 8154,
      "ĠFormula": 8155,
      "Ġfranchise": 8156,
      "Ġcoffee": 8157,
      "Mah": 8158,
      "hol": 8159,
      "ture": 8160,
      "Ġcup": 8161,
      "Ġflying": 8162,
      "ĠSuz": 8163,
      "igi": 8164,
      "omes": 8165,
      "ĠHas": 8166,
      "ĠHand": 8167,
      "ĠPicture": 8168,
      "ĠGary": 8169,
      "ĠJoy": 8170,
      "ĠKnow": 8171,
      "aging": 8172,
      "1952": 8173,
      "eoples": 8174,
      "manuel": 8175,
      "Ġtea": 8176,
      "inder": 8177,
      "ahn": 8178,
      "ieties": 8179,
      "ĠClinton": 8180,
      "Ġsubt": 8181,
      "Ġstrugg": 8182,
      "ĠWeek": 8183,
      "Ġdiscovery": 8184,
      "Ġprofession": 8185,
      "Ġvillages": 8186,
      "Ġphilanthrop": 8187,
      "ĠAtlanta": 8188,
      "ĠMetropolitan": 8189,
      "Ġrapid": 8190,
      "Ġsusp": 8191
    },
    "merges": [
      [
        "Ġ",
        "t"
      ],
      [
        "h",
        "e"
      ],
      [
        "Ġ",
        "a"
      ],
      [
        "i",
        "n"
      ],
      [
        "č",
        "Ċ"
      ],
      [
        "e",
        "r"
      ],
      [
        "o",
        "n"
      ],
      [
        "Ġt",
        "he"
      ],
      [
        "o",
        "r"
      ],
      [
        "a",
        "n"
      ],
      [
        "|",
        "|"
      ],
      [
        "r",
        "e"
      ],
      [
        "Ġ",
        "||"
      ],
      [
        "i",
        "s"
      ],
      [
        "Ġ",
        "s"
      ],
      [
        "Ġ",
        "w"
      ],
      [
        "a",
        "t"
      ],
      [
        "Ġ",
        "o"
      ],
      [
        "a",
        "r"
      ],
      [
        "e",
        "n"
      ],
      [
        "e",
        "s"
      ],
      [
        "e",
        "d"
      ],
      [
        "Ġ",
        "b"
      ],
      [
        "a",
        "l"
      ],
      [
        "i",
        "t"
      ],
      [
        "n",
        "d"
      ],
      [
        "Ġ",
        "c"
      ],
      [
        "Ġo",
        "f"
      ],
      [
        "Ġ",
        "f"
      ],
      [
        "a",
        "s"
      ],
      [
        "Ġ",
        "1"
      ],
      [
        "i",
        "c"
      ],
      [
        "Ġ",
        "in"
      ],
      [
        "Ġ",
        "p"
      ],
      [
        "Ġ",
        "S"
      ],
      [
        "r",
        "o"
      ],
      [
        "Ġ",
        "m"
      ],
      [
        "Ġa",
        "nd"
      ],
      [
        "in",
        "g"
      ],
      [
        "o",
        "u"
      ],
      [
        "Ġ",
        "A"
      ],
      [
        "l",
        "e"
      ],
      [
        "Ġ",
        "T"
      ],
      [
        "i",
        "g"
      ],
      [
        "Ġ",
        "d"
      ],
      [
        "Ġt",
        "o"
      ],
      [
        "o",
        "l"
      ],
      [
        "Ġ",
        "h"
      ],
      [
        "Ġ",
        "2"
      ],
      [
        "i",
        "on"
      ],
      [
        "Ġ",
        "C"
      ],
      [
        "Ġ",
        "("
      ],
      [
        "Ġ",
        "M"
      ],
      [
        "i",
        "l"
      ],
      [
        "â",
        "Ģ"
      ],
      [
        "u",
        "s"
      ],
      [
        "Ġ",
        "I"
      ],
      [
        "i",
        "d"
      ],
      [
        "a",
        "m"
      ],
      [
        "o",
        "m"
      ],
      [
        "en",
        "t"
      ],
      [
        "e",
        "l"
      ],
      [
        "Ġ1",
        "9"
      ],
      [
        "Ġ",
        "is"
      ],
      [
        "Ġ",
        "H"
      ],
      [
        "Ġ",
        "B"
      ],
      [
        "er",
        "s"
      ],
      [
        "Ġ",
        "P"
      ],
      [
        "0",
        "0"
      ],
      [
        "Ġ",
        "âĢ"
      ],
      [
        "Ġ",
        "l"
      ],
      [
        "Ġ",
        "L"
      ],
      [
        "c",
        "t"
      ],
      [
        "Ġ",
        "n"
      ],
      [
        "Ġw",
        "as"
      ],
      [
        "Ġa",
        "l"
      ],
      [
        "a",
        "d"
      ],
      [
        "e",
        "t"
      ],
      [
        "Ġt",
        "h"
      ],
      [
        "c",
        "h"
      ],
      [
        "s",
        "t"
      ],
      [
        "a",
        "y"
      ],
      [
        "ĠT",
        "he"
      ],
      [
        "Ġ",
        "g"
      ],
      [
        "o",
        "t"
      ],
      [
        "e",
        "m"
      ],
      [
        "i",
        "r"
      ],
      [
        "Ġ",
        "re"
      ],
      [
        "h",
        "t"
      ],
      [
        "Ġ",
        "D"
      ],
      [
        "u",
        "r"
      ],
      [
        "i",
        "v"
      ],
      [
        "Ġ",
        "R"
      ],
      [
        "i",
        "m"
      ],
      [
        "Ġ",
        "F"
      ],
      [
        "Ġ",
        "N"
      ],
      [
        "Ġ",
        "k"
      ],
      [
        "Ġ",
        "on"
      ],
      [
        "Ġf",
        "or"
      ],
      [
        "o",
        "w"
      ],
      [
        "Ġ",
        "W"
      ],
      [
        "u",
        "t"
      ],
      [
        "Ġb",
        "e"
      ],
      [
        "ig",
        "ht"
      ],
      [
        "l",
        "y"
      ],
      [
        "Ġ",
        "G"
      ],
      [
        "Ġ",
        "e"
      ],
      [
        "Ġ",
        "J"
      ],
      [
        "ĠâĢ",
        "Ķ"
      ],
      [
        "c",
        "e"
      ],
      [
        "he",
        "r"
      ],
      [
        "Ġ",
        "E"
      ],
      [
        "f",
        "e"
      ],
      [
        "b",
        "er"
      ],
      [
        "o",
        "v"
      ],
      [
        "is",
        "t"
      ],
      [
        "|",
        "-"
      ],
      [
        "Ġs",
        "t"
      ],
      [
        "Ġa",
        "s"
      ],
      [
        "u",
        "n"
      ],
      [
        "at",
        "ion"
      ],
      [
        "an",
        "d"
      ],
      [
        "r",
        "a"
      ],
      [
        "ig",
        "n"
      ],
      [
        "o",
        "c"
      ],
      [
        "i",
        "an"
      ],
      [
        "o",
        "p"
      ],
      [
        "t",
        "h"
      ],
      [
        "Ġ2",
        "00"
      ],
      [
        "Ġ",
        "O"
      ],
      [
        "ro",
        "m"
      ],
      [
        "t",
        "er"
      ],
      [
        "r",
        "ight"
      ],
      [
        "Ġ",
        "K"
      ],
      [
        "u",
        "l"
      ],
      [
        "a",
        "g"
      ],
      [
        "it",
        "h"
      ],
      [
        "c",
        "ol"
      ],
      [
        "o",
        "s"
      ],
      [
        "u",
        "m"
      ],
      [
        "Ġa",
        "n"
      ],
      [
        "1",
        "9"
      ],
      [
        "a",
        "k"
      ],
      [
        "a",
        "v"
      ],
      [
        "Ġ",
        "he"
      ],
      [
        "Ġb",
        "y"
      ],
      [
        "i",
        "es"
      ],
      [
        "Ġ",
        "|"
      ],
      [
        "Ġk",
        "m"
      ],
      [
        "Ġf",
        "rom"
      ],
      [
        "Ġal",
        "ign"
      ],
      [
        "col",
        "or"
      ],
      [
        "g",
        "color"
      ],
      [
        "=",
        "#"
      ],
      [
        "Ġb",
        "gcolor"
      ],
      [
        "o",
        "d"
      ],
      [
        "a",
        "c"
      ],
      [
        "Ġth",
        "at"
      ],
      [
        "al",
        "l"
      ],
      [
        "Ġw",
        "ith"
      ],
      [
        "e",
        "c"
      ],
      [
        "'",
        "s"
      ],
      [
        "il",
        "l"
      ],
      [
        "Ġ2",
        "0"
      ],
      [
        "Ġ",
        "it"
      ],
      [
        "Ġa",
        "re"
      ],
      [
        "Ġw",
        "h"
      ],
      [
        "es",
        "t"
      ],
      [
        "i",
        "a"
      ],
      [
        "m",
        "er"
      ],
      [
        "ar",
        "t"
      ],
      [
        "Ġ",
        "U"
      ],
      [
        "v",
        "er"
      ],
      [
        "ers",
        "on"
      ],
      [
        "ĠI",
        "t"
      ],
      [
        "re",
        "s"
      ],
      [
        "a",
        "in"
      ],
      [
        "e",
        "p"
      ],
      [
        "Ġa",
        "t"
      ],
      [
        "ĠH",
        "e"
      ],
      [
        "l",
        "d"
      ],
      [
        "Ġ",
        "y"
      ],
      [
        "Ġ",
        "or"
      ],
      [
        "i",
        "e"
      ],
      [
        "ic",
        "an"
      ],
      [
        "Ġp",
        "l"
      ],
      [
        "a",
        "p"
      ],
      [
        "u",
        "p"
      ],
      [
        "em",
        "ber"
      ],
      [
        "Ġc",
        "om"
      ],
      [
        "is",
        "h"
      ],
      [
        "fe",
        "fe"
      ],
      [
        "ar",
        "d"
      ],
      [
        "Ġ",
        "\""
      ],
      [
        "ĠS",
        "t"
      ],
      [
        "ĠâĢ",
        "ĵ"
      ],
      [
        "ar",
        "y"
      ],
      [
        "r",
        "i"
      ],
      [
        "us",
        "t"
      ],
      [
        "Ġ",
        "v"
      ],
      [
        "it",
        "y"
      ],
      [
        "n",
        "t"
      ],
      [
        "an",
        "t"
      ],
      [
        "u",
        "g"
      ],
      [
        "Ġ",
        "V"
      ],
      [
        "Ġp",
        "ro"
      ],
      [
        "P",
        "erson"
      ],
      [
        "Ġ",
        "-"
      ],
      [
        "ĠC",
        "h"
      ],
      [
        "#",
        ":"
      ],
      [
        "Ġ19",
        "9"
      ],
      [
        "or",
        "t"
      ],
      [
        "u",
        "d"
      ],
      [
        "on",
        "g"
      ],
      [
        "a",
        "b"
      ],
      [
        "at",
        "e"
      ],
      [
        "i",
        "f"
      ],
      [
        "mer",
        "ican"
      ],
      [
        "E",
        "A"
      ],
      [
        "am",
        "e"
      ],
      [
        "Ġc",
        "on"
      ],
      [
        "e",
        "w"
      ],
      [
        "ic",
        "h"
      ],
      [
        "ou",
        "r"
      ],
      [
        "s",
        "e"
      ],
      [
        "Ġ",
        "3"
      ],
      [
        "Ġc",
        "h"
      ],
      [
        "el",
        "l"
      ],
      [
        "ĠI",
        "n"
      ],
      [
        "Ġh",
        "is"
      ],
      [
        "ĠS",
        "oc"
      ],
      [
        "T",
        "he"
      ],
      [
        "Ġd",
        "e"
      ],
      [
        "Ġ20",
        "1"
      ],
      [
        "es",
        "s"
      ],
      [
        "as",
        "t"
      ],
      [
        "or",
        "ro"
      ],
      [
        "r",
        "it"
      ],
      [
        "e",
        "ar"
      ],
      [
        "or",
        "e"
      ],
      [
        "av",
        "e"
      ],
      [
        "i",
        "p"
      ],
      [
        "I",
        "N"
      ],
      [
        "u",
        "b"
      ],
      [
        "s",
        "o"
      ],
      [
        "EA",
        "R"
      ],
      [
        "ĠSoc",
        "orro"
      ],
      [
        "ĠL",
        "IN"
      ],
      [
        "ĠLIN",
        "EAR"
      ],
      [
        "en",
        "d"
      ],
      [
        "Ġs",
        "e"
      ],
      [
        "o",
        "st"
      ],
      [
        "Ġ",
        "us"
      ],
      [
        "g",
        "e"
      ],
      [
        "r",
        "an"
      ],
      [
        "iv",
        "e"
      ],
      [
        "er",
        "e"
      ],
      [
        "or",
        "n"
      ],
      [
        "o",
        "k"
      ],
      [
        "q",
        "u"
      ],
      [
        "Ġs",
        "h"
      ],
      [
        ")",
        ","
      ],
      [
        "Ġ",
        "Y"
      ],
      [
        "t",
        "her"
      ],
      [
        "o",
        "g"
      ],
      [
        "ĠT",
        "h"
      ],
      [
        "ĠU",
        "n"
      ],
      [
        "Ġ",
        "le"
      ],
      [
        "in",
        "e"
      ],
      [
        "Ġ1",
        "8"
      ],
      [
        "e",
        "op"
      ],
      [
        "Ġn",
        "ot"
      ],
      [
        "or",
        "d"
      ],
      [
        "ĠA",
        "merican"
      ],
      [
        "k",
        "e"
      ],
      [
        "Ġ",
        "4"
      ],
      [
        "i",
        "re"
      ],
      [
        "eop",
        "le"
      ],
      [
        "Ġe",
        "x"
      ],
      [
        "Ġs",
        "p"
      ],
      [
        "Ġal",
        "so"
      ],
      [
        "r",
        "y"
      ],
      [
        "2",
        "0"
      ],
      [
        "Ġpl",
        "ay"
      ],
      [
        "Ġw",
        "ere"
      ],
      [
        "u",
        "c"
      ],
      [
        "om",
        "e"
      ],
      [
        "Ġm",
        "ov"
      ],
      [
        "u",
        "nd"
      ],
      [
        "u",
        "re"
      ],
      [
        "or",
        "k"
      ],
      [
        "m",
        "ent"
      ],
      [
        "Ġ",
        "r"
      ],
      [
        "ac",
        "k"
      ],
      [
        "at",
        "ed"
      ],
      [
        "ou",
        "nt"
      ],
      [
        "Ġa",
        "ct"
      ],
      [
        "Ġh",
        "ave"
      ],
      [
        "m",
        "an"
      ],
      [
        "Ġh",
        "as"
      ],
      [
        "i",
        "al"
      ],
      [
        "u",
        "e"
      ],
      [
        "ir",
        "st"
      ],
      [
        "ow",
        "n"
      ],
      [
        "n",
        "g"
      ],
      [
        "ou",
        "t"
      ],
      [
        "ĠM",
        "ar"
      ],
      [
        "Ġa",
        "b"
      ],
      [
        "Ġbe",
        "c"
      ],
      [
        "a",
        "re"
      ],
      [
        "Ġ",
        "5"
      ],
      [
        "Ġy",
        "ou"
      ],
      [
        "ic",
        "al"
      ],
      [
        "Ġt",
        "e"
      ],
      [
        "Ġc",
        "an"
      ],
      [
        "im",
        "e"
      ],
      [
        "ic",
        "e"
      ],
      [
        "he",
        "n"
      ],
      [
        "an",
        "g"
      ],
      [
        "Ġwh",
        "ich"
      ],
      [
        "id",
        "e"
      ],
      [
        "Ġp",
        "eople"
      ],
      [
        ")",
        "."
      ],
      [
        "Ġf",
        "irst"
      ],
      [
        "u",
        "ary"
      ],
      [
        "fefe",
        "fe"
      ],
      [
        "an",
        "y"
      ],
      [
        "l",
        "and"
      ],
      [
        "e",
        "b"
      ],
      [
        "at",
        "es"
      ],
      [
        "s",
        "p"
      ],
      [
        "n",
        "e"
      ],
      [
        "Ġthe",
        "y"
      ],
      [
        "as",
        "s"
      ],
      [
        "it",
        "ed"
      ],
      [
        "Ġcom",
        "p"
      ],
      [
        "ion",
        "s"
      ],
      [
        "a",
        "ce"
      ],
      [
        "Ġ",
        "7"
      ],
      [
        "ou",
        "ld"
      ],
      [
        "on",
        "d"
      ],
      [
        "2",
        "00"
      ],
      [
        "ag",
        "e"
      ],
      [
        "Ġ",
        "j"
      ],
      [
        "ĠA",
        "l"
      ],
      [
        "ou",
        "s"
      ],
      [
        "f",
        "ter"
      ],
      [
        "Ġh",
        "ad"
      ],
      [
        "o",
        "od"
      ],
      [
        "am",
        "p"
      ],
      [
        "Ġon",
        "e"
      ],
      [
        "Ġ",
        "un"
      ],
      [
        "i",
        "z"
      ],
      [
        "at",
        "er"
      ],
      [
        "Ġl",
        "i"
      ],
      [
        "Ġ19",
        "8"
      ],
      [
        "a",
        "w"
      ],
      [
        "on",
        "e"
      ],
      [
        "Ġ",
        "6"
      ],
      [
        "Ġk",
        "n"
      ],
      [
        "re",
        "e"
      ],
      [
        "ĠS",
        "p"
      ],
      [
        "Ġb",
        "ut"
      ],
      [
        "âĢ",
        "ĵ"
      ],
      [
        "a",
        "ch"
      ],
      [
        "Ġ",
        "ro"
      ],
      [
        "o",
        "ber"
      ],
      [
        "or",
        "s"
      ],
      [
        "ad",
        "e"
      ],
      [
        "p",
        "er"
      ],
      [
        "er",
        "n"
      ],
      [
        "Ġo",
        "ther"
      ],
      [
        "Ġthe",
        "ir"
      ],
      [
        "t",
        "o"
      ],
      [
        "o",
        "b"
      ],
      [
        "Ġa",
        "r"
      ],
      [
        "Ġp",
        "art"
      ],
      [
        "or",
        "y"
      ],
      [
        "t",
        "e"
      ],
      [
        "Ġ",
        "her"
      ],
      [
        "a",
        "us"
      ],
      [
        "at",
        "h"
      ],
      [
        "c",
        "l"
      ],
      [
        "Ġ1",
        "7"
      ],
      [
        "al",
        "ly"
      ],
      [
        "Ġc",
        "l"
      ],
      [
        "Ġp",
        "ol"
      ],
      [
        "ep",
        "t"
      ],
      [
        "Ġwh",
        "o"
      ],
      [
        "in",
        "d"
      ],
      [
        "Ġth",
        "is"
      ],
      [
        "ou",
        "nd"
      ],
      [
        "ic",
        "t"
      ],
      [
        "ak",
        "e"
      ],
      [
        "Ġ200",
        "0"
      ],
      [
        "ation",
        "al"
      ],
      [
        "l",
        "es"
      ],
      [
        "Ġ19",
        "7"
      ],
      [
        "Ġm",
        "e"
      ],
      [
        "Ġal",
        "l"
      ],
      [
        "ĠL",
        "e"
      ],
      [
        "res",
        "s"
      ],
      [
        "Ġab",
        "out"
      ],
      [
        "Ġd",
        "o"
      ],
      [
        "Ġs",
        "er"
      ],
      [
        "p",
        "p"
      ],
      [
        "Ġ",
        "9"
      ],
      [
        "ĠS",
        "he"
      ],
      [
        "ro",
        "w"
      ],
      [
        "or",
        "ld"
      ],
      [
        "ic",
        "k"
      ],
      [
        "f",
        "er"
      ],
      [
        "Ġt",
        "w"
      ],
      [
        "i",
        "o"
      ],
      [
        "Ġ",
        "8"
      ],
      [
        "ept",
        "ember"
      ],
      [
        "il",
        "d"
      ],
      [
        "ic",
        "ian"
      ],
      [
        "u",
        "ch"
      ],
      [
        "ĠUn",
        "ited"
      ],
      [
        "Ġc",
        "all"
      ],
      [
        "ĠA",
        "r"
      ],
      [
        "o",
        "ok"
      ],
      [
        "Ġy",
        "ear"
      ],
      [
        "ol",
        "d"
      ],
      [
        "i",
        "b"
      ],
      [
        "ter",
        "n"
      ],
      [
        "ĠS",
        "eptember"
      ],
      [
        "le",
        "ct"
      ],
      [
        "ct",
        "ober"
      ],
      [
        "an",
        "s"
      ],
      [
        "ver",
        "y"
      ],
      [
        "re",
        "n"
      ],
      [
        "en",
        "s"
      ],
      [
        "it",
        "e"
      ],
      [
        "Ġw",
        "ork"
      ],
      [
        "a",
        "ct"
      ],
      [
        "ul",
        "t"
      ],
      [
        "ĠThe",
        "y"
      ],
      [
        "p",
        "h"
      ],
      [
        "ĠO",
        "ctober"
      ],
      [
        "Ġ200",
        "1"
      ],
      [
        "Ġ1",
        "6"
      ],
      [
        "ĠN",
        "ew"
      ],
      [
        "ing",
        "s"
      ],
      [
        "Ġa",
        "g"
      ],
      [
        "ĠTh",
        "is"
      ],
      [
        "w",
        "ard"
      ],
      [
        "19",
        "9"
      ],
      [
        "en",
        "ce"
      ],
      [
        "Ġ1",
        "0"
      ],
      [
        "he",
        "d"
      ],
      [
        "f",
        "f"
      ],
      [
        "ou",
        "g"
      ],
      [
        "p",
        "e"
      ],
      [
        "Ġ19",
        "6"
      ],
      [
        "Ġus",
        "ed"
      ],
      [
        "or",
        "m"
      ],
      [
        "o",
        "ot"
      ],
      [
        "Ġs",
        "c"
      ],
      [
        "ar",
        "k"
      ],
      [
        "Ġt",
        "ime"
      ],
      [
        "p",
        "ort"
      ],
      [
        "o",
        "h"
      ],
      [
        "id",
        "ent"
      ],
      [
        "Ġcall",
        "ed"
      ],
      [
        "1",
        "8"
      ],
      [
        "Ġs",
        "he"
      ],
      [
        "Ġit",
        "s"
      ],
      [
        "it",
        "t"
      ],
      [
        "Ġtw",
        "o"
      ],
      [
        "Ġa",
        "fter"
      ],
      [
        "w",
        "e"
      ],
      [
        "Ġkn",
        "own"
      ],
      [
        "a",
        "h"
      ],
      [
        "o",
        "y"
      ],
      [
        "Ġa",
        "d"
      ],
      [
        "p",
        "t"
      ],
      [
        "ĠSt",
        "ates"
      ],
      [
        "Ġ",
        "up"
      ],
      [
        "ug",
        "ust"
      ],
      [
        "is",
        "ion"
      ],
      [
        "Ġm",
        "ost"
      ],
      [
        "ub",
        "l"
      ],
      [
        "on",
        "s"
      ],
      [
        "is",
        "s"
      ],
      [
        "Ġcon",
        "t"
      ],
      [
        "=",
        "\""
      ],
      [
        "as",
        "ed"
      ],
      [
        "Ġpol",
        "it"
      ],
      [
        "Ġn",
        "e"
      ],
      [
        "ation",
        "s"
      ],
      [
        "p",
        "r"
      ],
      [
        "Ġm",
        "ade"
      ],
      [
        "Ġs",
        "o"
      ],
      [
        "i",
        "ed"
      ],
      [
        "v",
        "e"
      ],
      [
        "Ġm",
        "any"
      ],
      [
        "ĠS",
        "h"
      ],
      [
        "Ġbe",
        "en"
      ],
      [
        "Ġ",
        "en"
      ],
      [
        "it",
        "ion"
      ],
      [
        "Ġm",
        "us"
      ],
      [
        "i",
        "le"
      ],
      [
        "ĠE",
        "ng"
      ],
      [
        "Ġw",
        "hen"
      ],
      [
        "ĠJ",
        "an"
      ],
      [
        "iv",
        "ers"
      ],
      [
        "ĠA",
        "ugust"
      ],
      [
        "Ġo",
        "ut"
      ],
      [
        "Ġm",
        "ore"
      ],
      [
        "b",
        "all"
      ],
      [
        "Ã",
        "©"
      ],
      [
        "Ġ1",
        "5"
      ],
      [
        "ĠMar",
        "ch"
      ],
      [
        "aus",
        "e"
      ],
      [
        "Ġthe",
        "re"
      ],
      [
        "ĠM",
        "ay"
      ],
      [
        "cl",
        "ud"
      ],
      [
        "1",
        "0"
      ],
      [
        "I",
        "n"
      ],
      [
        "Ġw",
        "e"
      ],
      [
        "Ġ19",
        "4"
      ],
      [
        "t",
        "en"
      ],
      [
        "r",
        "al"
      ],
      [
        "le",
        "v"
      ],
      [
        "Ġin",
        "to"
      ],
      [
        "Ġthe",
        "m"
      ],
      [
        "Ġs",
        "ing"
      ],
      [
        "ur",
        "ing"
      ],
      [
        "ic",
        "s"
      ],
      [
        "Ġ",
        "im"
      ],
      [
        "re",
        "at"
      ],
      [
        "ay",
        "s"
      ],
      [
        "ĠN",
        "ov"
      ],
      [
        "p",
        "l"
      ],
      [
        "in",
        "ce"
      ],
      [
        "Ġd",
        "is"
      ],
      [
        "l",
        "l"
      ],
      [
        "er",
        "man"
      ],
      [
        "t",
        "s"
      ],
      [
        "Ġ19",
        "5"
      ],
      [
        "Ġ1",
        "2"
      ],
      [
        "os",
        "e"
      ],
      [
        "Ġ",
        "ra"
      ],
      [
        "Ġin",
        "clud"
      ],
      [
        "l",
        "ish"
      ],
      [
        "Ġg",
        "o"
      ],
      [
        "al",
        "s"
      ],
      [
        "eb",
        "r"
      ],
      [
        "he",
        "re"
      ],
      [
        "Ġa",
        "c"
      ],
      [
        "in",
        "a"
      ],
      [
        "ĠA",
        "s"
      ],
      [
        "a",
        "il"
      ],
      [
        "Ġ1",
        "3"
      ],
      [
        "Ġmov",
        "ie"
      ],
      [
        "k",
        "s"
      ],
      [
        "Ġs",
        "ome"
      ],
      [
        "r",
        "am"
      ],
      [
        "Ġ199",
        "9"
      ],
      [
        "Ġo",
        "ver"
      ],
      [
        "Ġw",
        "rit"
      ],
      [
        "v",
        "ent"
      ],
      [
        "Ġof",
        "f"
      ],
      [
        "f",
        "t"
      ],
      [
        "ĠNov",
        "ember"
      ],
      [
        "ou",
        "th"
      ],
      [
        "iv",
        "er"
      ],
      [
        "on",
        "t"
      ],
      [
        "re",
        "d"
      ],
      [
        "Ġh",
        "im"
      ],
      [
        "Ġp",
        "er"
      ],
      [
        "Ġre",
        "c"
      ],
      [
        "s",
        "on"
      ],
      [
        "as",
        "e"
      ],
      [
        "ebr",
        "uary"
      ],
      [
        "ĠJan",
        "uary"
      ],
      [
        "Ġ19",
        "3"
      ],
      [
        "Ġc",
        "ount"
      ],
      [
        "e",
        "ak"
      ],
      [
        "u",
        "ct"
      ],
      [
        "Ġli",
        "ke"
      ],
      [
        "ĠI",
        "nd"
      ],
      [
        "Ġb",
        "et"
      ],
      [
        "b",
        "orn"
      ],
      [
        "ĠA",
        "n"
      ],
      [
        "Ġ",
        "Z"
      ],
      [
        "sp",
        "an"
      ],
      [
        "1",
        "2"
      ],
      [
        "or",
        "th"
      ],
      [
        "ol",
        "l"
      ],
      [
        "pr",
        "il"
      ],
      [
        "g",
        "an"
      ],
      [
        "ĠD",
        "ec"
      ],
      [
        "o",
        "ol"
      ],
      [
        "am",
        "es"
      ],
      [
        "v",
        "el"
      ],
      [
        "as",
        "h"
      ],
      [
        "o",
        "in"
      ],
      [
        "Ġ1",
        "4"
      ],
      [
        "w",
        "n"
      ],
      [
        "ĠF",
        "ebruary"
      ],
      [
        "Ġn",
        "ew"
      ],
      [
        "ov",
        "ern"
      ],
      [
        "Ġcom",
        "m"
      ],
      [
        "in",
        "n"
      ],
      [
        "ro",
        "und"
      ],
      [
        "a",
        "z"
      ],
      [
        "Ġw",
        "ould"
      ],
      [
        "t",
        "on"
      ],
      [
        "ire",
        "ct"
      ],
      [
        "1",
        "6"
      ],
      [
        "c",
        "es"
      ],
      [
        "i",
        "x"
      ],
      [
        "he",
        "s"
      ],
      [
        "Ġa",
        "pp"
      ],
      [
        "Ġbec",
        "ame"
      ],
      [
        "A",
        "merican"
[...]
